[PAD]
[UNK]
[CLS]
[SEP]
[MASK]
!
"
#
$
&
'
(
)
*
,
-
.
/
0
1
2
3
4
5
6
7
8
9
:
;
=
?
\
_
a
b
c
d
e
f
g
h
i
j
k
l
m
n
o
p
q
r
s
t
u
v
w
x
y
z
##a
##u
##d
##i
##o
##r
##e
##s
##l
##n
##m
##t
##g
##h
##f
##b
##p
##v
##c
##x
##y
##6
##7
##k
##5
##8
##w
##3
##0
##j
##z
##4
##1
##9
##2
##q
##er
th
##in
the
##on
##es
##or
##ed
##an
##en
##ar
##at
in
##ing
##al
to
##it
of
an
##st
##ic
##ay
##ou
##il
##ion
##om
##as
##is
##el
##ter
and
##id
##ec
##ur
##et
on
##ent
##re
##ro
st
for
##day
##ac
re
##ir
##ad
##ts
##am
##ig
##ol
##ot
##le
##ers
##ut
##ve
##ill
ne
##ow
##th
com
39
##est
##ch
fr
as
##ation
##ver
##us
ch
be
##ly
at
that
##im
is
pr
##ith
##un
wh
with
##os
##ra
##ear
sa
##em
##igh
##ul
##op
pro
con
##ag
##ce
##ld
sh
##oun
new
##and
##ak
qu
its
##ist
it
un
##ess
de
said
le
##ain
af
##ast
##ters
by
##pp
ex
##ect
has
sp
##ri
comp
##oc
was
pl
al
se
##ian
##all
en
ag
from
##uters
##um
##ate
us
##ost
he
##ore
reuters
mon
##ies
##iv
##ight
##esday
##ack
##ust
##our
will
##ft
wor
his
off
##ia
##00
##ort
##ment
##ap
##ity
we
su
##ial
year
ha
after
##ard
##oo
ac
inc
##ks
##art
##ive
##ere
##ine
##uc
##ell
##ry
fir
##ab
cl
over
##qu
sec
##ould
##ding
##if
have
##mer
exp
quot
##ie
inter
tw
res
their
##ice
ab
##ip
are
##any
mar
##ob
##gh
rep
up
ser
##ge
ar
##ions
int
##are
##ick
##ens
ap
or
##pt
two
so
##ond
go
##ning
##mp
##ork
##ace
##ans
##out
lt
ind
##ant
tr
##end
rec
br
first
##ome
##illion
##ong
co
but
##ich
per
##ound
##ame
ad
##arg
##ime
pe
fin
##ud
##ident
##urs
##ree
##ue
pres
##ile
gt
out
gr
##ish
op
world
##ester
##ke
sc
this
##ous
##ach
wee
more
##ors
tu
##ign
##ations
wed
inv
monday
##ide
##og
win
##iday
wedn
cont
wednesday
tuesday
one
##ail
company
##der
200
cor
##ursday
thursday
##amp
not
app
##ber
no
min
again
man
cr
dis
intern
##ays
president
el
##ices
than
lead
te
##ake
##ass
friday
##ff
bus
##oll
##hn
##ub
##own
##age
bl
##anc
##ary
acc
all
sun
##iz
they
##ough
##ase
mo
##ates
week
corp
last
##ated
##ational
ira
##ure
##ros
##ount
##ull
iraq
##ket
york
##act
##ict
la
yester
yesterday
high
##ory
##ug
##ther
##ited
##ton
play
##row
against
##av
##her
who
##ance
##ose
ann
##ele
about
##arter
invest
ear
ph
##etw
hel
fl
##old
were
##ank
##ade
into
##one
##ence
offic
str
dec
##ite
##ven
##ason
three
can
been
peop
##earch
quarter
##iss
##ord
comm
##oup
serv
stoc
##hing
##atur
att
gover
had
##ican
bo
report
air
million
govern
##duc
##oin
##ey
##ounc
oil
##ood
when
sy
eur
##ope
war
##orts
pol
li
elect
month
##eral
sunday
##ical
official
##gr
car
##ware
##vel
##ote
would
def
government
time
four
##xt
##ating
me
##oft
cons
##ased
##ition
united
ret
mil
amer
group
##man
##ected
team
which
mic
des
game
am
second
tec
##ement
##ep
today
##urn
people
##ird
full
secur
##cent
back
could
##orm
open
prof
years
bu
##ely
part
sl
mak
market
next
##land
count
##als
satur
soft
##ph
minist
##ang
end
set
announc
season
##olog
##ib
ma
##od
news
percent
##oss
kill
shar
##ix
##ting
micros
night
saturday
##up
##ral
ass
reg
par
##uss
bec
##line
##tle
##able
europe
##ook
software
sal
##ire
champ
third
##reat
nor
##ash
sou
##oy
##ower
pre
10
day
##atch
##enc
##iness
imp
run
cap
plan
sur
big
gen
prices
work
col
ter
business
produc
techn
some
down
security
##ines
##les
##ina
inf
may
##con
##stem
microsoft
##quote
fullquote
washing
bank
##ets
med
washington
milit
##lic
##ally
##hip
##ise
dem
conf
stocks
mus
##co
##ier
##ecut
internet
##ents
minister
##ics
do
red
announced
state
brit
eng
vict
##ged
netw
just
##se
##uring
##ah
##ital
##led
most
##ied
##wn
under
international
billion
help
fe
technolog
##ved
##air
system
##az
supp
record
ins
jo
agre
2004
fed
##ball
##ock
dr
##ision
top
aust
rele
sw
cour
former
research
##its
sch
##io
##ists
##tion
larg
##aus
call
officials
##uter
other
say
##ities
##cess
hol
if
says
near
econ
states
econom
##ult
##ief
show
##ned
targ
##ague
reported
##ok
bar
start
you
##ath
city
long
pal
##ince
country
##ious
rem
oper
##uch
bro
gu
take
manag
del
gl
attack
gian
maj
##ms
##urr
##unch
jap
##tt
austral
##iel
##orn
##bs
##ames
japan
##ording
computer
victory
tal
kn
##fore
tra
sign
tri
grow
##ica
ste
##ron
before
sm
european
19
major
national
##een
south
target
largest
##oot
champions
technology
home
service
league
tick
indust
rel
head
afp
##ern
american
oc
sales
##pped
russ
prov
##ert
network
poin
dep
000
law
offer
##ger
hal
federal
##ward
what
##ble
john
##ual
post
##lear
deal
killed
aut
five
pub
ra
##ont
##rael
israel
incl
according
her
thr
execut
##und
chief
##iam
prime
##ner
court
##els
vi
##gan
##ands
##ling
##ember
##velop
now
bush
expected
##ows
plans
miss
##way
15
develop
made
china
get
##ings
lat
search
final
##ange
cent
san
##alif
there
##ins
him
##inu
north
while
##ons
##other
##ones
oly
olymp
maker
##istan
launch
ticker
during
betw
between
##ead
least
##ee
quick
compan
##ency
ir
coach
them
hit
##gest
companies
bel
online
lond
##ony
gre
em
london
##enn
won
##ause
##ttp
http
##ted
old
##ru
ever
eff
ww
stre
power
ke
stri
##ild
sen
progr
british
cup
##ium
bom
test
##med
##uts
##ces
##ient
way
tro
www
##aim
incre
##inian
oct
host
expl
##ives
##thern
through
how
six
##ving
##ants
make
##vers
##ful
cost
##ref
##fo
pay
tak
series
##vent
ath
href
##nings
##pr
another
##ves
ref
##ollar
##ield
buy
web
space
##ular
palest
bag
based
job
##su
##gy
##ky
since
##ene
press
police
terr
strong
left
giant
bat
dollar
##ised
sus
industry
investor
palestinian
##cl
fil
mob
prot
reb
11
##let
own
ro
music
fall
im
##ising
ant
riv
##ave
games
ext
##ury
camp
sports
sept
leader
ed
##owing
##ool
any
##ai
##per
profit
trad
even
shares
found
election
round
##hd
foot
nas
asp
services
being
##ink
20
general
wind
dat
put
##aly
bid
agreed
##son
iraqi
##gin
only
pass
claim
baghd
##back
baghdad
susp
meet
because
canad
program
##over
##gle
early
##rupt
##ind
##ior
##ense
12
consum
##head
dri
##uding
stock
mobile
drug
sing
##ese
inj
military
##eless
months
ger
##info
share
union
quickinfo
aspx
franc
like
days
##ission
loss
enter
##isco
wir
##ility
cut
mem
see
contro
foll
mid
look
##loy
##ize
commun
goo
adv
##ether
move
dev
india
##ivers
charg
##aw
bre
hand
star
##ards
##66
##ax
##bers
##ures
num
##ouse
##osed
pat
prop
rose
wr
half
including
##ady
##ops
nation
many
sour
##ract
gold
insur
##bm
##ought
stud
##ude
threat
##ider
ago
spec
biggest
still
sell
add
ang
det
cre
ver
av
leg
dir
tele
terror
mich
##oci
scor
financ
##form
inst
executive
bomb
tit
14
##ific
talks
reach
vir
char
calif
public
##min
opp
act
wireless
##ution
##par
conc
trade
wal
##ump
los
west
retail
spe
appro
players
cust
glob
data
prom
form
##ley
championship
rest
compet
google
free
##tain
stor
##erson
recent
##ator
key
##oston
bot
tim
id
##ators
phone
held
##lin
##iew
mor
##ty
higher
dou
ve
fell
sold
much
##itch
olympic
commission
released
fore
uk
latest
rul
deb
##ross
points
boston
return
arm
should
##ured
associ
growth
##ages
nuc
##be
athens
##ending
remain
vers
mot
nuclear
##ench
dav
pa
##ked
chip
bill
##ible
australia
stand
earnings
hom
##down
custom
##ush
##lish
ara
sol
##raw
##ife
##iting
hear
##ret
dro
direct
##ments
scient
mer
##king
where
bet
##iff
england
dead
foreign
football
did
##ered
##dan
region
she
##ago
##ries
investors
ge
turn
global
##uel
match
hop
east
##ative
fourth
main
demand
good
##itical
aug
called
##ects
##ging
##istr
afr
fut
##ots
beat
bas
sever
users
ibm
##ison
firm
lab
face
need
seven
line
vide
wom
viol
desp
##app
nearly
israeli
financial
pak
rev
##amil
presidential
suc
dig
18
street
nations
ev
weeks
process
join
##ress
##alth
rad
economic
##used
use
wall
##so
windows
amp
div
pack
##ism
russian
ahead
##ights
pakistan
13
pop
took
##raft
30
##br
indian
francisco
vis
acqu
low
##aza
systems
support
fight
despite
auth
hard
leaders
stra
right
around
past
ur
continu
emp
##ne
contract
phil
##ghan
poss
chic
kore
##com
25
##iver
number
##ober
##iers
##osition
also
17
##erence
##uct
univers
care
dom
je
##ications
gain
well
##ov
try
real
##ute
16
##ized
##ended
school
equ
forces
peace
used
men
pc
##ater
leading
secret
hurr
investig
america
hurrican
reports
rival
fail
sox
agency
disc
36
hist
troops
met
quote
trans
##eng
##ather
following
economy
depart
chicago
fac
##enter
afghan
alle
rece
##ik
keep
far
lower
apple
disp
base
har
dar
capital
broad
lit
led
##ocr
##ael
toky
tokyo
##ened
nov
engine
##ipp
##ided
fund
il
campa
##red
release
your
##acle
agreement
here
ari
##atic
impro
##ida
fire
field
hum
net
both
gaza
##int
bra
##iving
democr
profile
price
october
house
author
ban
person
analy
video
september
port
health
version
organ
##esh
short
media
australian
control
french
small
brow
##str
best
late
##ugh
killing
touch
player
2005
##elf
my
might
##ker
arr
design
##eles
appear
campaign
sent
workers
products
corpor
##ection
mass
mart
step
##adr
ham
source
clos
watch
##fact
##ston
interest
several
##rib
don
mc
russia
such
every
regul
close
aim
jud
hour
flor
great
##ying
curr
employ
##ults
electron
iran
rob
tur
##sh
success
making
manager
coll
conference
##ham
##af
digital
quest
customers
scientists
outs
title
##ness
club
oracle
##itt
##lam
whether
champion
party
100
sim
##eal
ener
geor
inform
tor
concern
boost
loc
death
department
tax
##off
reser
famil
barr
crude
jobs
est
buil
##ney
eight
attacks
chair
michael
ms
##lant
##lier
##ats
scored
center
##acy
##ensive
consumer
val
lo
##port
begin
southern
life
political
##pe
vo
saf
japanese
resp
break
cell
come
energy
yan
##ming
telev
##by
##owed
exper
northern
race
islam
canadian
lar
californ
##vem
perform
##rem
novem
lik
few
mos
beh
florida
november
##aker
##erry
##ession
saying
running
ast
meeting
card
24
##rew
britain
told
board
ip
management
little
21
##uck
due
##ites
##imin
want
place
winning
es
##go
sudan
super
intel
##ugg
central
away
kid
opt
launched
hurricane
yanke
##ann
case
admin
taking
army
mail
sum
decision
50
doc
angeles
california
ball
fast
results
across
##orks
without
peoples
##amed
##uce
university
emb
reven
##bled
##ott
speed
pitch
##cy
give
sem
##ij
administr
list
##ecast
##opp
office
##lo
##idence
##inux
using
morning
##key
tel
##uk
##ale
level
linux
neg
##lines
analyst
applic
dist
priv
weekend
bankrupt
##iled
food
order
##iger
become
##ired
exch
shot
expect
##ds
##ex
proble
chall
defense
peoplesoft
gra
hou
##we
information
chairman
##ike
quarterly
future
##ject
gas
straight
secretary
earth
lou
site
##res
costs
issu
houston
forecast
##ential
##inc
er
ty
stat
##ering
tour
members
less
does
women
charges
##ests
##cept
nasa
mark
communications
grand
rich
##ides
france
better
atlant
alm
clear
##less
complet
history
mess
sub
consider
lost
belie
operating
elections
showed
##estern
david
spr
pros
among
hot
mod
times
##ef
thous
child
##mar
##fur
chec
prev
bow
posted
tom
warned
chr
touchdown
##ole
paul
william
increase
battle
human
##thers
holding
same
##ived
signed
den
rank
force
attem
##uj
polic
august
television
korea
hold
money
po
repub
tex
##asing
black
##eration
bod
##uge
color
##ler
stad
earlier
yankees
ca
stores
cle
##ners
##kt
militants
almost
land
kerry
senior
mill
##fl
those
##uction
exchange
bay
emer
baseball
iv
trading
stadium
tre
defe
settle
pull
##ta
arrest
let
fear
green
##prise
font
##ament
manu
pur
access
rise
##lex
diff
dam
##na
ce
nine
##osp
##ounded
anti
##bc
##ways
popular
going
accused
reserve
fans
ris
##ung
heav
class
mult
##ster
germ
medal
jan
product
##enal
ltd
began
came
##onto
toronto
cash
association
got
sk
likely
explos
behind
soc
seat
activ
action
manufact
##ately
##ys
conn
##ren
ob
commer
amid
##ening
vot
##ified
carri
prem
barrel
ended
fur
helped
thousands
texas
personal
administration
mal
toward
soon
opening
division
araf
labor
tech
##ready
##oti
already
judge
##da
shi
growing
##lim
##umb
point
died
##att
trial
##ization
cam
rate
fuel
os
sharp
offering
possible
pan
##ees
##wa
darfur
negoti
ju
too
white
arafat
challen
vol
##ared
init
bal
storm
##ocket
account
199
lawsu
##cast
ent
publish
cop
foc
##urt
##aced
afghanistan
pot
sat
##ona
bring
##til
chang
prison
unve
quarterback
hopes
paris
prepar
germany
western
infl
bankruptcy
canada
##ians
contin
confir
sil
yet
coast
jun
##oon
withd
performance
repl
fre
sug
##ille
alleged
23
countries
22
gun
intro
louis
##mit
term
fact
poll
##inese
cand
radio
hours
##aff
weap
insurg
once
seem
airlines
career
##aper
##asser
williams
##oid
##ined
##ane
colle
networks
151
##ove
euro
current
store
study
revenue
sn
finance
chinese
spok
ars
injured
rates
requ
civ
mag
##itions
##ooks
computers
trying
##itive
##ety
within
local
gave
yards
production
violence
authorities
efforts
jump
##bo
deskt
visit
domin
island
##ape
block
german
push
##ience
attempt
cond
server
muslim
corporate
analysts
george
##chester
soldiers
mac
##vert
special
change
civil
##ps
##ech
##ashed
takeover
hostage
##icans
outside
##load
##bur
subs
strike
side
##ba
goal
finish
each
town
competition
aimed
suff
bor
starting
size
##cover
avail
reached
opposition
retailer
heart
previous
eas
##dle
markets
devices
african
giants
then
hund
investment
hundred
##ually
##ecom
env
##vey
##verage
jones
must
failed
spokes
27
fav
##ories
tool
shut
phones
##ett
##ota
until
##ena
##ece
known
cp
tenn
##wide
##gress
sony
concerns
counc
hosp
continued
crow
ny
council
expand
##ension
airline
travel
fig
som
yasser
##cri
##eland
aff
looking
candid
arri
filed
500
vote
madr
youn
blue
tv
development
went
outl
cred
others
recover
profits
taken
weapons
spam
enough
invol
##que
sched
insurance
designed
fresh
jour
manchester
holiday
##pl
teams
train
arg
##ric
##aud
##anced
legal
cy
rac
stop
rally
clim
phot
capt
aid
##hold
##ama
mov
americans
event
beij
art
deliver
beijing
miam
qualif
unit
track
large
##ily
raised
##ength
seattle
further
selling
electronics
desktop
miami
conv
trou
virgin
telecom
bur
##ases
##inals
##itz
africa
28
mach
##aled
pract
upd
rocket
##cer
##ounding
consumers
##ced
madrid
pac
find
executives
ry
station
squ
##nal
##itor
##leg
crit
bowl
##val
##utes
olympics
road
potential
##icip
spain
children
bene
sym
rebel
question
cal
ital
mosc
##lad
##ically
operations
basket
strugg
ber
import
effort
fighting
lim
cub
tony
building
moscow
##bed
##ban
##ams
guard
file
##east
##set
express
finally
slow
download
##olf
coming
##ues
researchers
rights
che
powerful
atlanta
allow
wa
falluj
family
jer
yah
##rian
annual
working
claims
motor
heavy
40
dut
area
yahoo
26
never
fired
indones
caus
ple
spending
35
getting
doub
##olution
comb
braz
private
fun
ground
##ertain
policy
hospital
##ville
mort
think
fif
pred
##icket
arab
continue
##ades
park
survey
ipod
cbs
pos
water
##ule
swe
nfl
double
hope
reve
securities
eu
##arm
worth
christ
businesses
mast
##de
##akers
##iven
arrested
##bab
drop
read
drive
lift
ident
focus
##han
discover
though
##elph
mont
##nes
spac
##ipment
provide
illeg
democratic
tourn
##elphia
cele
rock
pressure
rebels
roll
regulators
hands
staff
basketball
supply
autom
middle
italian
mount
pil
##wood
delay
jack
##iding
college
##ends
planned
hundreds
brazil
sup
disapp
dollars
investigation
charged
problems
rej
scre
decided
officer
available
benef
##ention
newsp
sale
##iron
named
cris
wood
name
##ga
strate
brown
asked
expectations
canc
strip
virus
pick
##ulation
rising
detro
young
##get
ran
##ars
leav
resign
detroit
mur
##err
december
build
nasda
employees
nasdaq
coun
know
flight
rivals
approved
philad
link
ut
journal
philadelphia
##ipped
##band
confirmed
##ander
parl
##cal
##ender
##ances
captain
islamic
ceo
shopp
separ
gains
brows
suspected
2003
arsenal
mat
##men
##vet
##icted
introduc
estim
##aj
fraud
##ability
injury
propos
unveiled
somet
pet
##for
##unt
controvers
##ino
##iance
light
##field
advert
appar
technologies
equipment
tournament
kar
clin
award
hy
tem
stay
wild
bang
##icide
seen
weak
repres
turned
discuss
statement
withdraw
29
##oming
##aps
winter
body
pit
##eld
stake
featur
##wh
parliam
roy
strength
dv
ruling
rain
##ula
along
claimed
parliament
view
##ented
later
increased
##reme
span
##lom
##orters
##ption
fifth
giving
bad
satell
partners
treat
##ico
improve
position
##aged
egy
ken
mike
##ault
generation
spokesman
golf
spot
egypt
above
opened
terrorism
moved
singap
ranked
tot
arch
steve
received
environ
##ently
##phy
celebr
inning
2006
enterprise
crisis
singapore
prosecut
iss
##ceed
##ively
##cial
ready
chance
##aging
runs
qa
playoff
average
ey
##den
bit
niger
##lies
##wan
asia
blood
lines
##mo
intell
airways
applications
initial
given
##uted
advanced
##itional
effect
ivan
commercial
credit
hew
suicide
added
forward
fri
playing
gam
rod
seed
wants
##ald
##ounds
entertain
experts
##ature
ending
bud
dow
asian
groups
veh
draw
##50
##ises
storage
##atives
project
acquis
summer
lu
lock
##ained
##ector
mw
##read
didn
##era
soccer
jose
front
happ
slight
charge
ton
blast
related
athlet
sources
vehic
##irc
medical
risk
aud
very
##uary
##use
having
##itness
beg
chips
distrib
defeat
purch
outlook
missing
ruled
trip
sites
##uled
carry
suggest
alex
##uting
blair
traff
accept
##yn
challenge
##ford
director
accounting
cricket
dest
dip
##bit
minutes
republic
our
sex
started
millions
increasing
oak
##bor
create
bi
bird
circ
##ran
calls
january
##eing
##ll
deter
able
appeal
attorn
differ
attorney
serious
militant
single
##uments
meas
die
wid
doz
astron
##elt
congress
committ
organization
safety
fears
king
environment
31
sant
##tim
joint
range
##iest
##eric
##aded
result
issue
##ya
overt
minnes
steel
proposed
##atory
played
400
warning
teleph
losing
displ
satellite
minnesota
##iet
##erv
content
losses
cit
these
whose
avoid
overs
ram
defic
lawsuit
rog
chain
drugs
threatened
dutch
##ched
bond
mom
##dam
##ze
##tern
sharon
evidence
##napped
entertainment
wounded
##craft
mex
greece
committee
dell
rout
##egr
cuts
rap
witness
ship
scand
decl
protect
kick
pow
##ox
##ein
became
mission
debt
closer
non
rang
##ari
interim
successful
##maker
##ilities
##ibility
johnson
merc
##akes
deep
##ogra
urged
bob
box
tough
##iders
forced
##pping
standard
represent
jail
tight
##inks
seeking
ireland
carrier
eag
shr
border
browser
##tered
beating
recently
pir
##eb
##ored
leave
thanks
review
leaving
tell
reason
##ounce
##aking
##anger
returned
##enger
##illa
dism
micro
##anium
##ushing
course
disappoin
ll
send
##self
plat
alth
issues
insurgents
mut
throw
##aring
ps
##car
restr
homes
huge
rom
zeal
##hi
provider
total
although
citing
pict
offensive
lawy
##tors
##hol
##inn
##icks
comes
offered
##vention
poor
xp
july
##of
##ockey
device
##ew
signific
includ
airport
##holders
newspaper
sit
aircraft
singh
##ana
italy
##ria
application
nyse
##oul
##medi
explor
palestinians
important
awa
member
fly
why
##epend
dropped
hall
rejected
hill
sport
diplom
wide
occ
film
broadcast
critic
zealand
counter
bell
naj
##ati
closed
independ
ministry
ord
##ences
wanted
ryder
dvd
##to
##agu
##yle
cho
enc
##mun
thought
##ume
ariel
49
fix
sans
supplies
woman
crowd
virginia
mortg
nba
##wart
stage
##usal
##rial
moon
retire
surv
terrorist
60
nec
tai
upgr
eastern
acquisition
najaf
mis
highest
kept
hen
oh
##anch
##idents
carol
sending
consecut
electronic
consecutive
##ada
prize
brought
code
oakland
voters
connect
aftern
##ify
##onduct
copy
scheduled
role
##lican
##tions
shows
striker
immedi
##coming
doesn
kab
pain
##olis
##ansas
justice
detail
formula
significant
yuk
##ring
##kins
rules
issued
threw
vend
saw
##hl
##iring
room
spanish
certain
fis
developed
davis
80
##gers
##view
futures
jeff
##vin
coal
tonight
platform
afternoon
bull
coup
cross
##uff
##bi
brand
carl
##dana
illegal
prior
manufactur
666
serif
helvet
hostile
##666
verdana
arial
kidnapped
666666
helvetica
cas
##illing
##assin
##lined
sharply
negotiations
frank
sha
check
fi
##apolis
boeing
memory
intellig
300
shoot
plant
instead
remains
built
taiwan
cisco
makes
acquire
fallujah
lay
##he
##igr
treas
explosion
##iod
##rich
##har
##thing
##istic
debate
slightly
prix
cleric
merger
supreme
vent
approach
##ipping
kabul
dan
##veland
cleveland
yukos
cra
##ystem
##ental
firms
expects
protest
dra
lic
sir
##iling
##unes
winner
struck
buying
shopping
##iar
published
update
vice
##ark
##ny
integr
protection
##awi
dall
save
confidence
below
##lywood
victim
premier
##burgh
figures
features
book
kong
##ten
commit
patri
republican
scandal
nok
spacec
##ges
##imes
himself
hoping
caused
spacecraft
sanc
##alled
abu
suspended
classic
movie
hong
##ients
##igan
period
relations
motors
proposal
pace
##ado
indic
backed
##beat
candidate
controversial
chel
und
march
raise
carolina
fle
worldwide
streak
dispute
appeared
dallas
obs
yard
tog
stro
servers
insp
broker
programs
gar
##post
##orld
innings
##estic
##imir
disney
decades
delta
howard
shareholders
cn
##mir
##iconduct
##isl
semiconduct
together
tiger
weather
decline
announcement
surf
##usalem
hockey
song
##zz
owners
jerusalem
woods
vlad
plc
interview
esp
row
needed
deficit
rene
showing
processor
introduced
pitts
41
sector
##duce
syd
makers
calling
longer
broadband
pulled
revealed
something
##ulf
operation
reform
legisl
sydney
james
lear
vac
##inal
changes
advertising
ten
##right
banks
mexico
things
##onstr
##elves
##ortun
secure
problem
touchdowns
common
planning
hollywood
delhi
vladimir
32
boss
##rust
compl
decade
##encies
reduce
charl
ariz
cardinals
sad
##hen
##igning
##oles
##olph
probab
crack
favor
##ystems
cable
dre
##bn
##iter
##izing
tennis
pittsburgh
##ask
clash
science
operator
chelse
spent
industrial
korean
cab
index
producer
explod
solar
massive
##mark
arrived
machines
kansas
pers
ans
boy
associated
sprint
bri
da
##mers
##eda
worst
crimin
##dog
itself
sharing
parts
refuge
passed
inflation
training
chelsea
cast
core
remained
##essional
astros
murder
different
intelligence
probably
hun
funds
beginning
fort
mortgage
kh
##come
##iny
spy
seconds
helping
palm
easy
bol
amb
auto
batt
looks
##ma
##mas
##uster
ukra
troubled
ok
admit
teh
prevent
deploy
domestic
struggling
roger
##itors
##using
isn
confl
anticip
instit
respons
##going
richard
practice
semiconductor
jason
yen
scott
senate
ben
session
##night
marketing
smart
raising
gri
##west
extended
royal
knock
philipp
pilots
qaeda
38
critical
sett
nokia
conflict
wel
##uit
goals
announce
broke
extra
tehran
cur
##house
##isted
##ips
polit
colin
jean
##ift
##irl
finding
brok
putin
pcs
believe
##real
minute
facing
34
##oom
armed
catch
##eth
ford
community
michigan
holdings
gather
jets
nav
ul
thom
pled
electric
histor
corporation
nets
##ko
invent
moving
impact
takes
settlement
indonesia
christmas
vill
wounding
##held
worries
amd
microsystems
uranium
pacific
33
sky
##bour
##ery
resc
##obe
plane
terms
talk
subsid
linked
sanctions
70
auction
jim
##makers
##oned
nextel
signs
##lett
masters
ohio
exploded
lack
##arian
orig
desc
veter
##apping
earthqu
cat
##inger
ordered
kash
##ano
webs
resol
##ielder
province
owner
paid
lot
dise
surpr
century
debut
telephone
setting
##enced
guil
developing
virt
turkey
embass
fiscal
##idel
miles
progress
address
oppon
kashmir
distr
pt
probe
ill
baltim
diego
baltimore
rav
##iti
neigh
outp
simp
damage
suffered
hurt
##orrow
unc
##ques
64
dod
##fe
2002
mean
swed
manufacturing
panel
freed
moment
patriots
ray
sadr
##ml
anim
sevent
2000
blow
assault
ron
rule
van
##ev
##idge
convention
shock
opportun
needs
continues
alleg
complete
##cription
hous
sel
income
reds
trib
propert
hotel
renew
ow
andre
warner
liber
##ucture
tomorrow
sweep
45
bir
live
##uation
##ca
##kn
pharm
flag
##iox
falling
crew
packard
telecommun
discovered
temp
hewlett
ta
story
planet
cutting
breaking
display
nob
trophy
##enez
martin
optim
thail
atom
english
inside
pakistani
pitcher
bonds
guilty
danger
##ios
scr
washingtonpost
dram
prosp
log
##eman
conduc
cover
liver
wrong
##itzer
arizona
mel
penn
vul
##ara
appears
##exp
screen
thailand
##oint
surprise
recovery
dail
ped
exc
2001
jew
strategy
plus
agree
##abad
kidn
daily
bern
mad
##cing
##kes
##stand
##arta
twice
highs
##gery
questions
june
request
nin
sam
tie
##utions
##ighth
enrich
fla
ide
nhl
finals
flu
assist
tried
##ification
##ova
levels
tools
venture
##stit
##oud
unl
stewart
hp
approval
georg
telecommunications
jav
##keep
disrupt
numbers
emerg
thems
##ato
##uries
coop
##udi
defending
traders
lawsuits
racing
themselves
dub
mater
pair
tack
surgery
##ught
voting
previously
48
hits
##iation
##ongh
##isions
really
peer
northeast
irish
filing
looked
criminal
bry
jac
mr
si
##ship
##gn
##oma
##oty
areas
defensive
knee
value
replace
jumped
positive
montreal
cause
via
residents
allowed
##angu
becoming
##ahe
jackson
friend
##oph
##ansion
adop
cruc
ministers
embassy
vulner
gro
va
surr
columb
demonstr
image
robert
nigeria
witnesses
mix
pm
wake
##ris
##my
often
stem
offers
##ially
relief
passes
handed
deadly
55
draft
##thr
bron
crash
southeast
prompt
msn
message
benefits
dismiss
fer
hat
rook
##rac
##ading
agent
regular
seventh
ele
son
itunes
living
nothing
flat
missile
completed
apparently
budget
fair
hack
natur
zone
sixth
species
independent
hur
jak
##ality
##ither
##ody
grew
indianapolis
finished
done
dolph
fish
patch
##ania
anahe
moder
banking
feel
allegations
anaheim
90
mun
##pal
##reek
score
cars
##ushed
colorado
seems
qualifying
sure
##arters
mars
faces
familiar
commerce
material
uns
alan
heating
assets
testing
karz
huss
##omm
##illed
bruss
##berg
reduc
watchdog
eb
ring
##ht
disast
##atings
198
prepared
purchase
brussels
girl
toll
stopp
flood
##otype
jakarta
##ha
scot
amaz
missed
advant
ninth
karzai
luc
##fer
##wer
##ication
unexp
adding
blog
joined
##weight
powell
band
rand
##pool
##ym
sea
cool
defin
majority
hostages
homer
doctors
considering
unexpected
alliance
bombing
hamid
declared
saddam
##oura
##ounts
##season
antit
magaz
traffic
awaited
43
ach
coc
thing
seek
retailers
respon
model
replac
argent
##iles
##ivid
##ished
las
pent
##ears
concl
created
treasury
district
dolphins
bought
cos
purs
##cat
students
currency
msft
cancer
estimates
75
gulf
##ki
##orter
##iment
flaw
sand
##ever
spread
computing
##ously
smith
include
commissioner
petro
##inh
chart
managers
package
sudanese
influ
prosecutors
liverpool
nar
##fect
##iced
andy
prel
upcoming
quickly
fastest
chris
bringing
delayed
matter
explorer
copyright
historic
disease
rum
beach
saudi
documents
utah
ep
eighth
wil
spar
##elled
expansion
records
portable
voice
voted
atomic
rookie
jet
##light
##icult
resolution
mary
arms
moz
defence
switch
headed
driver
details
emergency
magazine
pen
##pan
##ural
##ried
airb
##fox
customer
firefox
organiz
atlantic
denied
output
crucial
bombs
edition
safe
cro
figh
inn
chann
##ival
word
opener
gener
demands
regional
shiite
carrying
includes
sens
##aut
##cel
##ains
spir
##ablish
resour
grant
##ampa
environmental
mutual
hussein
lad
##cos
##amb
proj
marsh
barry
putting
hurricanes
boosted
denver
difficult
orders
cents
pension
##0s
##abilities
expos
individ
crashed
allows
flash
slam
entered
bott
##comp
believed
craig
natural
antitrust
sbc
prince
heat
speculation
shift
resigned
victims
bes
names
sought
wasn
##usted
teen
reportedly
establish
preparing
climate
nik
venez
ank
##ilar
solid
eagles
venezuel
fan
mets
ts
##ued
##rad
##cape
age
recall
handheld
islamabad
summit
conditions
rangers
##oping
subm
format
receiver
donald
dozens
hills
cabin
ky
nl
opec
owned
standards
goods
semif
tenness
involved
retirement
coalition
brief
rather
tampa
##ties
##cc
##outh
offense
eli
surged
info
kevin
threats
democracy
turning
believes
changed
allegedly
begun
dream
viox
##bre
plot
##oney
speech
associates
improved
activity
##burg
partnership
vehicle
vioxx
tests
ways
##jay
##icop
##aining
exports
conserv
promised
similar
cinc
rall
##ecting
discl
elimin
helicop
nascar
charles
movies
merck
##innati
priority
admitted
cincinnati
tens
##ology
stars
faster
spring
malays
ali
##apt
wins
earn
terrorists
soldier
transport
harm
ivory
initi
candidates
##where
immediately
carlos
tennessee
hon
##fielder
##aling
##omb
##utical
newly
##ibly
closing
##factor
prelimin
kind
##lan
##ct
ask
always
##ument
monitor
upset
flights
newsfactor
guerr
developer
scoring
cubs
##harra
okl
ebay
42
date
fox
##ss
enron
capac
files
instant
deadline
maintain
activities
treatment
lawyers
georgia
gets
km
constr
agencies
abs
##aceutical
notre
##enna
radical
social
stroke
anticipated
leban
declined
teamm
doing
joe
holy
smaller
der
dame
links
spl
warming
partner
county
traditional
devast
angels
subscri
##ograph
describ
enrichment
cow
greek
decide
##awa
strateg
spyware
airbus
gone
ott
##oke
##me
##yl
##emy
##isting
spect
minor
hamas
supercomp
bodies
rapid
ukraine
jon
penal
ster
prin
nationwide
hardware
cnn
53
65
ba
celt
##etary
##roy
stun
unions
unbeat
##endo
championships
photo
ble
gm
mour
##ni
##yad
##war
overnight
feder
deput
threatening
veteran
mozilla
educ
toy
placed
##enses
##izon
flo
indiana
continuing
novell
##box
indonesian
widely
rare
##ique
##gar
##ining
salv
supporters
remaining
cabinet
600
##gen
attention
##lands
surge
remote
datab
advis
wales
polls
disappointing
opportunity
cer
##mc
##bing
bey
##ocol
hole
claiming
walk
promot
forecasts
pushed
##au
##icon
##ola
##eme
##ipe
musharra
silver
predict
property
musharraf
bin
cards
##pts
acquired
premiers
increasingly
pharmaceutical
51
eth
jam
nint
suit
text
edge
directors
option
pedro
az
##earing
contrib
command
swiss
driven
gunmen
master
renewed
rallied
##mond
spend
evening
separate
picture
mist
pun
sle
##uke
##rick
seoul
officers
authority
nintendo
fat
ku
lose
mp
vowed
##hib
franch
unless
overall
patent
motion
investigating
doubt
preliminary
beyond
wond
##otel
##cher
unf
##ucks
images
walt
multip
##ladesh
bangladesh
tiny
haiti
attend
raid
greens
stronger
broken
##html
premiership
gary
jhtml
rick
##ias
##aces
##ersey
chem
bears
##inez
abb
recomm
##ookup
##type
##attled
upgrade
books
brian
era
rub
recording
parties
martinez
silicon
berlin
response
ottawa
jr
qcat
qtype
##hood
##ka
anth
enh
##quotel
appe
allowing
infotype
matches
financequotel
vehicles
financequotelookup
ii
wife
##enty
##vez
ens
##ishing
officially
##ierce
##wards
edged
faced
larry
advantage
oklah
44
##iary
##ril
##ination
quiet
wayne
eye
shooting
java
jacques
narrow
capacity
54
curt
fa
##mine
##jan
milan
parent
technical
follow
defeated
citiz
oklahoma
cities
ties
##ction
##world
##kei
bloom
providers
grab
##board
limited
nikkei
67
gh
ko
ven
##usion
resume
marath
else
professional
regist
greater
overtime
bryant
cing
lands
pi
zim
##gu
fred
halt
compete
graph
shuttle
achie
ec
pga
rig
river
comments
willing
ability
appl
launching
protocol
keeping
options
prisoners
expressed
occup
deputy
cingular
au
##oes
##cle
##well
anc
##eck
##lement
##che
sav
quit
##ocks
iraqis
reporting
targets
##airo
advance
hearing
situation
unbeaten
marathon
sides
##ius
##haps
##bury
excl
##ably
pervez
manning
means
##cons
vienna
zimbab
47
aol
react
##olic
heading
rebounds
extend
201
emerged
entire
##force
withdrawal
jord
chen
user
interf
perhaps
saturn
captured
manufacturer
jewish
zimbabwe
eased
jersey
##eline
perfect
crimes
assem
laws
belg
streets
frances
camer
seeded
earthquake
700
gym
ly
pip
tent
wave
##nam
##itis
anton
plun
##acked
aband
soaring
reaching
drove
##castle
dun
fam
langu
nom
shipping
buff
instr
semi
votes
restruct
tempor
800
wis
style
##aming
##ogn
announcing
doubled
organis
schedule
falluja
encoura
mixed
appeals
jury
##pro
##aries
chile
weigh
clot
trig
partic
winds
##ruption
braves
songs
website
##iro
##acher
##phere
infring
centre
batter
driving
install
processors
philippines
dodgers
dramatic
scotland
jordan
37
##lers
##net
##pical
##arily
newcastle
spin
##bean
violent
succeed
myster
amazon
##ao
##do
##etts
##ador
repe
truck
moves
governments
feature
attacked
territ
leadership
camera
picked
##ofi
##stitution
cold
forest
internal
stret
passenger
creating
bills
labour
massach
dominated
complain
resources
matt
self
torn
##aur
##usetts
prim
allawi
attract
##iban
subst
trouble
machine
cuba
lux
refugee
disaster
massachusetts
bench
either
fine
hung
lank
sri
behead
offset
assassin
taliban
refused
separat
dozen
##point
##ione
##usive
lee
words
medic
scores
events
possibly
involving
76
##bly
##boy
##icious
ongoing
hass
cann
beck
beta
##appers
revolution
messages
columbia
doping
wi
##hard
tosh
##uses
quite
altern
phys
##ements
networking
150
traded
verizon
scientific
messaging
caught
clean
legislation
idea
52
aub
od
ori
##edia
chances
sud
annan
lawmakers
refer
founder
##engers
astronom
housing
database
66
gord
page
##urning
apart
insisted
vijay
patients
failing
multi
federer
cerem
born
ful
nick
##asion
##igious
##abor
recogn
##uded
particip
considered
wait
viruses
channel
construction
trigger
auburn
barg
burn
##ns
pret
aggress
contest
mind
lifted
sie
spons
abuse
april
goes
peter
governor
liqu
##iba
impress
colomb
hitting
everything
lives
oce
theft
##oring
##rop
##tha
shell
deals
seized
trust
##aze
titan
symb
mountain
restructuring
lows
mcl
wat
##va
##reg
rein
##osen
exam
corner
appoin
##aves
bigley
confident
injuring
ranking
piracy
vendor
virtual
tackle
dual
ice
kenn
kofi
##za
revers
##une
##ivity
##ustr
works
##apse
##ordin
sets
seasons
throughout
250
improving
egyptian
choice
thomas
gymn
99
drew
nort
##urch
##essed
usa
haw
franchise
mir
onto
##rol
sued
managed
however
anyone
solution
schools
typh
vs
##iners
##omp
stan
nepal
highly
desert
##umped
pacers
archit
friends
vendors
bul
lind
mand
signing
##dick
##qt
##iana
197
##backs
heard
deadl
sentenced
surprising
redskins
dele
prec
##iction
amount
heads
lineup
visiting
seemed
laden
sams
tig
##anda
##aks
noteb
postseason
email
communist
fellow
failure
combat
brazilian
bitter
determin
subscribers
hug
pushing
tum
##wis
##asc
##ective
##aped
regard
developers
watched
civilians
squad
spaces
uncertain
antonio
deleg
dial
gates
ru
rut
tend
##die
##leans
chase
aren
orleans
postp
gained
everyone
explosives
climbed
measures
pledged
bottom
samsung
82
norm
##ashing
##rys
orland
elected
stepped
headqu
provided
extrem
studios
joining
waiting
bobby
dismissed
toshiba
##qtada
tigers
orlando
46
##erate
enab
additional
bombings
peacekeep
pitched
##ette
practices
dangerous
fighters
sudden
fann
##aver
##side
##mission
##joy
##tering
mining
##ikely
unlikely
argentina
aer
dog
sound
sidel
units
monetary
##orse
slipped
barcel
carried
square
criticism
greenspan
chemical
fannie
bab
ease
fit
gives
paper
uef
##oning
congr
weight
infra
foundation
turk
towards
stopped
uefa
gard
mine
ol
##eas
##apers
twins
defend
mae
produced
connection
rockets
potentially
roddick
friendly
fought
hub
kim
##oen
##ils
abduc
string
planes
mayor
anything
embattled
models
condition
expanding
figure
photos
##thritis
described
gymnast
ign
##umn
annivers
largely
passengers
receive
begins
politic
neighbor
headquarters
##te
##time
##itude
##ires
meg
increases
refl
injuries
banned
ryan
predicted
pictures
flying
birth
barcelona
infrastr
anniversary
cry
di
##cs
##xim
lewis
compon
arthritis
bright
returning
couldn
paying
cyber
pleaded
opponents
education
typhoon
bbc
cassin
sust
##ami
export
martha
##izer
suffering
delivered
convicted
graphics
var
##ois
##eason
##wers
##room
preseason
relie
mcd
love
obtain
hewitt
lawyer
gordon
cassini
ib
sr
##gas
inch
##station
andrew
forum
##emp
produce
shan
enjoy
worm
resum
adrian
corruption
knew
concer
discount
steps
hamm
closely
emerging
ravens
appointed
##rysler
sac
##aire
##rig
schilling
viet
equity
deaths
sugg
introduce
diplomats
obser
infrastructure
96
cart
lake
nether
tied
inqu
##ili
##issions
##ords
larger
talking
writes
status
poised
insurgent
affair
identity
apparent
representatives
institute
rescue
assistant
ds
kobe
rome
##hm
##bes
present
libr
prep
remember
morgan
fields
collapse
taxes
err
bert
lyn
pist
##oe
##rom
##orth
ads
gren
consp
implement
militia
remo
industries
providing
starts
suggested
manufacturers
inventories
##onghold
##racts
netherlands
wra
##cia
##eled
shots
acad
maria
accounts
earned
stronghold
raf
suspects
benefit
resignation
vacc
responsible
kidnappers
supercomputer
citizens
father
hang
nic
path
##estone
quality
exact
##elling
genes
drives
engineers
athletics
surface
strategic
62
hu
rat
wm
##aug
ash
##aked
weaker
##argo
syria
currently
illegally
journalists
##holder
relationship
lanka
ceremony
turkish
86
creat
unw
abd
meter
bigger
##urred
possibility
iranian
critics
rolled
licens
beckham
69
aside
unpr
##pper
complex
contracts
steady
powered
drivers
competitive
reduced
language
dick
##auts
compared
alive
##ifying
brad
lowest
require
easier
heavyweight
charlott
##ctic
territory
architect
buc
##buster
##oman
prove
proceed
##agon
serve
opin
##aval
carib
feb
demanding
evac
universal
landmark
magn
blockbuster
favour
estimated
playoffs
circuit
astronauts
steelers
clashes
resolve
petrole
cannot
stern
##ecially
offices
serving
justin
guid
targeting
programme
democrats
expanded
nigerian
individual
steroid
assembly
particular
cult
fen
fash
holl
##zy
##iller
frustr
##ager
##iant
resist
worker
medals
swim
imm
transfer
controlled
publisher
struggled
distribution
destroy
successfully
especially
navy
##know
projects
mp3
cameras
vietnam
agents
acknow
trend
recru
sunni
euros
retired
colts
coaches
vegas
versions
greatest
comeback
distance
privately
osama
shrine
helicopter
ocean
suggests
petroleum
gal
hd
lif
##fire
##woman
##eced
presence
accusing
laur
extension
couple
72
breat
cbc
zar
##dy
##fort
thin
##omo
blu
liby
fees
outsour
foods
gasol
snow
qualifier
causing
brokerage
organizations
ankle
multiple
caribbean
acknowled
diam
pione
compens
plays
orbit
chiefs
followed
competitors
democrat
watching
focused
frequ
islands
nobel
venezuela
malaysia
famous
inquir
cz
gear
mu
congo
scale
accident
feed
##ennan
bomber
investigators
experim
##market
effective
accepted
reasons
subsidiary
hackers
57
wenger
##oard
##pass
##wich
##ghai
maybe
brother
explo
rooney
packers
collabor
positions
jeanne
semifinals
anthony
shanghai
jagu
tall
##oth
church
pra
brands
letter
roman
maryland
ensure
spaceship
unpreced
unprecedented
kl
wick
##ata
##atively
constitution
repair
playstation
understand
holes
writer
stephen
attempts
gaming
included
answer
hassan
04
56
85
loy
lley
pf
tab
##met
cong
client
bridge
worlds
##uggle
slide
producing
austria
solutions
illin
successor
modest
chechen
overseas
pistons
charlotte
fashion
lleyton
84
gor
hired
nv
teles
vod
##bling
##enko
parents
capable
showdown
tropical
brain
convoy
eyes
espn
welcom
coca
clothing
mclennan
dc
kod
ousted
rushed
table
##sis
enfor
worried
intens
scra
mostly
golden
titles
formally
miller
volunt
condem
nortel
diamond
telesc
68
fro
soph
vast
##uing
##ws
##orp
##anes
##oum
##rif
aboard
trick
phoen
amster
meetings
idg
homeland
##rawl
meth
regulatory
cease
solaris
ferg
phoenix
amsterdam
92
lions
tank
##uan
##nie
##tr
##work
##emen
##umph
commander
syn
##athan
triumph
##mohan
cases
hus
samp
##ero
inaug
##icle
orb
busy
genet
supplier
targeted
edwards
returns
dark
origin
innov
gall
##ae
##ded
margar
mariners
phel
phill
supposed
religious
editor
roundup
valley
factory
discovery
shoppers
gathered
infringement
77
carter
cath
felt
##nel
##hman
##zen
##vement
##osing
worry
cru
blamed
##ounced
##ground
meters
slugg
##loyment
homered
experience
subject
arabia
pilot
qaida
measure
daniel
favorite
separatist
fergus
phelps
05
78
##ints
##icing
##ulated
exhib
spitzer
expert
marked
manmohan
accel
fled
consol
effects
movement
promises
boosting
esc
cleared
hotels
entry
determine
sweden
cooperation
modern
stretch
margaret
hamp
task
##gb
##erc
unemp
alber
overha
capabilities
##ooth
spammers
motorola
controversy
destr
##ography
boxing
immediate
reforms
initiative
liquid
gasoline
eri
fierce
lapt
rail
tan
wim
##arn
##sters
reporters
arena
##ensions
##endum
adj
grid
infow
##ront
scientist
engineering
mcc
ballot
carriers
clinch
sweeping
spirit
split
blew
loyal
gap
##ua
##had
##ini
##ills
comment
sees
struggle
capsu
plants
cola
shareholder
shipments
flagship
prospects
capsule
kil
py
vital
xbox
##qawi
##roll
whe
whole
##oster
marines
quarterf
##elson
standing
robot
republicans
simple
referendum
kenneth
prepare
vodaf
fal
hor
mother
sized
ite
alb
invasion
##active
monthly
producers
door
engines
barely
knows
suspension
studio
##umping
sentiment
respond
revenues
drag
sparked
beslan
zarqawi
inquiry
vodafone
mol
tay
wides
##pread
##icut
concess
##abil
interior
orange
manage
desper
operators
financing
employee
mosque
membership
copies
connecticut
ancient
astronomers
sluggish
63
pav
rh
roo
sears
tap
tail
##dom
##osh
true
branch
##berry
##ancing
halo
restaur
feared
arsene
muslims
browns
trafford
garcia
buffal
wickets
illinois
ferguson
71
ferr
##lor
##2p
##arant
existing
hasn
adobe
corr
offerings
battered
appearance
estate
holds
multim
advertis
jailed
materials
lebanon
##azeera
74
bh
dur
erupt
fem
p2p
##ratings
##bar
chap
shown
backing
someone
trail
coaching
charley
landing
delivery
utility
citigr
khart
kmart
cowboy
##ukee
alternative
infoworld
citigroup
porn
##fol
##itarian
##roc
stations
##oto
comfort
chir
princ
suite
serb
boom
warnings
backup
worked
##fully
extending
memor
shoulder
lowered
disputed
harry
ipo
audio
khartoum
95
pound
wing
xinh
##dles
##atically
##ayed
conver
deuts
haven
orcl
consort
column
population
facility
embar
##ception
awarded
powers
munich
widespread
bund
dust
gate
lob
rug
tun
##giving
##ulate
##ello
##pton
crime
allen
allies
##action
switzer
searching
##enges
document
challenges
explosions
capture
reading
sometimes
athletic
psft
casino
opponent
siege
welcomed
unemployment
buffalo
88
gart
rw
##life
##ports
##vania
##eling
##road
##amo
chad
##emic
proved
usato
clar
milwa
description
##ologists
imposed
feet
settled
notebook
consortium
usatoday
milwaukee
cairo
##iber
shop
##aine
soy
victor
provides
##ruary
memph
promise
hoped
families
luxury
february
3g
brawl
ox
pounds
sven
wire
##ulting
##agues
plenty
uses
marl
soared
adam
grad
ell
drink
tries
goog
promin
lineback
cellular
pitching
easily
henry
original
simply
memphis
jay
nca
pool
ratings
##eed
stands
##rah
unus
slowed
assess
ticket
strikes
payments
patrick
creation
formal
160
improper
analysis
1999
dominant
downloads
happy
sexual
crowded
necess
fleet
teammates
pipeline
vaccine
deutsche
switzerland
gartner
ace
bon
lp
sor
sense
##fall
##eded
stick
##under
unr
governing
termin
payment
##avez
passing
sentence
responsibility
politics
floods
unexpectedly
colombia
concerned
czech
fate
lig
rough
##alore
firing
ups
##assi
slowing
mosul
heavily
screens
lockout
neck
committed
ultim
waters
exactly
outsourcing
pfizer
telescope
overhaul
bed
ross
##mens
##stein
neal
chavez
atm
##ectors
##ivo
2008
console
10th
aviation
demanded
aims
combined
bangalore
knocked
pentagon
organisation
consolid
eve
gad
jul
jazeera
mall
##ien
##anmar
##icient
exerc
ally
clients
##antec
peru
2007
investments
defended
victories
advoc
##awks
titans
actually
approve
promising
indians
strained
myanmar
sprin
policies
symantec
limit
slowdown
thanksgiving
northeastern
definition
celtic
toyota
ncaa
dal
hunt
ri
##rison
##feld
##can
##col
##imp
##aka
compat
disk
pole
##ological
imports
recorded
palace
relatives
legend
##atorial
regulator
bloody
casual
swedish
influence
landsl
piece
kodak
linebacker
dh
din
horse
jays
##erve
starter
beef
places
resort
marc
##enson
peters
scene
computerworld
promote
processing
##ikh
employment
##whel
learned
persu
eliot
aggressive
enforc
cowboys
fel
rid
##ez
##bl
##oral
tob
ones
asking
arctic
intc
contact
crm
busch
guine
reality
aiming
clemens
identified
fixed
surrounding
recommend
licensing
ax
##pm
##esters
##rier
marri
marine
##anson
##phone
##ernand
emot
write
freeze
billions
divid
humans
portfol
##itten
escal
civilian
handset
handsets
optimistic
prompting
wonder
gymnastics
opinion
female
bound
hell
nap
pin
ren
ziff
shad
##istics
sean
##allah
overwhel
marking
intended
perman
##igned
meant
ends
sharap
##inson
breed
patents
stormed
funding
santa
commitment
momentum
prompted
replacement
granted
conservative
hugo
fenway
guinea
58
cs
rou
##burn
##enham
##star
stood
remove
vik
protests
rounds
collaps
challenger
rocked
prosecutor
athletes
representing
throwing
bronze
submit
harmony
destruction
lets
sach
##ui
chanc
item
agassi
diss
els
tested
revised
##ipper
newspapers
temper
##bourne
penalty
deadliest
compensation
sharapova
caval
dw
krem
##lig
##vard
##western
##outs
ont
reject
##utious
cha
##osphere
sap
##aste
alone
##ellor
serena
##enders
##izes
moham
wars
musab
schum
tyco
cautious
visitors
races
license
prospect
fully
pretty
chirac
94
rays
rushing
soci
anger
##illas
shel
shak
coff
restore
baseman
blackberry
##planes
telling
thrown
palmone
spaceshipone
kremlin
81
nag
##gs
newratings
height
##iab
apolog
northwest
suspic
loans
preview
##place
thinking
rolling
kicked
ambass
freedom
melbourne
kuwa
tentative
determined
congressional
conspir
genesis
ak
##ek
##nic
##eries
##illy
priced
wholes
lehman
fined
muse
voip
malicious
volume
recovered
learn
ricky
regarding
evacu
resistance
foss
len
pocket
##rone
##ales
##omes
sp2
##iable
coordin
outfielder
guarant
suspect
suspend
angel
charac
beaten
##anny
caution
weakness
rodrig
diplomatic
survived
conducted
temporary
affairs
wmt
enforcement
ailing
lun
wer
##away
##mes
##fit
forcing
worse
exporters
##azer
belt
seeks
midfielder
detained
competing
supermarket
factories
eventually
function
automaker
ramallah
hunting
village
randy
schumacher
horn
longh
migr
##syl
##rey
##acing
##ections
hav
##achi
##ancy
setback
asset
older
rovers
angry
object
clinton
kenned
seriously
##holm
criticized
netscape
pennsyl
tsun
89
cd
dyn
filled
gig
hamil
jama
pad
rot
##iya
##aron
##ecl
stalled
forbes
shook
exceed
##ache
invit
146
dropping
severe
equatorial
firew
replaced
crown
photograph
swept
wildlife
happened
biot
henman
connections
crackdown
scottish
conduct
##inho
minority
peacekeepers
cryst
exhibition
longhorn
hond
hiring
wider
##uals
##dd
forget
gov
mini
highlight
briton
196
12th
insurer
directly
robust
loan
cells
speedway
ernie
type
landed
calm
disclosed
cheney
substant
vikings
conspiracy
hamilton
bug
dna
ecl
kaz
lived
mile
native
##lon
##mouth
##hill
##ario
##elie
expensive
##amped
defender
impose
joh
swing
guy
managing
humanitarian
spokeswoman
convinc
christian
parliamentary
suggesting
jacksonville
grabbed
various
destroyed
prominent
kennedy
aw
ov
wiz
##mon
##itely
##acco
prol
const
manh
endang
##oking
mississ
reserves
withdrew
insurgency
availability
journalist
raptors
welcome
devastating
quietly
instruments
normal
pennsylvania
61
dict
fol
gil
lag
punch
##pa
##oses
##uls
##astic
indies
finds
disarm
slug
##anged
##ibur
##azz
federation
israelis
##lington
imag
entering
specific
speaking
turns
domain
engineer
yankee
ballots
chechn
updates
curb
kyoto
##consin
plunged
wisconsin
libya
princip
chancellor
00
79
bos
finger
kent
md
rental
tas
##rill
##gent
##ych
##attered
##omed
##lying
unix
alert
##antas
winners
blame
phase
regime
surging
signal
steam
##eek
##onym
bids
addition
walked
##iffe
bases
transform
clearing
strengthen
improvement
birds
hallibur
certainly
transportation
rafael
particularly
marlins
tobacco
portfolio
chechnya
halliburton
et
easing
ga
map
##pur
stakes
quoted
marion
laid
##ahawks
barb
trials
everton
seeing
patrol
urban
##news
discip
hamstr
docomo
article
ranks
indicated
optimism
stunning
postponed
abducted
politicians
ded
divers
hugh
pact
rams
##ration
##lecl
##yang
##wal
##atures
economists
raiders
versus
healthy
mcn
malcol
confirm
envoy
doublecl
celebrate
deployment
belgium
impressive
chapter
cavaliers
mississipp
malcolm
doubleclick
flex
mumb
tag
tape
wage
##gom
##worth
##ional
##olen
newest
seahawks
suz
hailed
marks
arbit
##enda
profession
billionaire
brothers
dealers
buyers
globe
standings
digit
gaining
##ughter
eric
completing
risks
doubts
ranging
restrict
encoun
surviv
boyc
madison
lynch
hollinger
acknowledged
rugby
dividend
mississippi
hike
iron
icc
nt
pounded
##stan
##stone
sab
spur
overc
intense
##antan
coverage
leads
counting
delays
##prises
##cliffe
packed
supporting
##ovo
fewer
fueled
storms
montgom
proposals
stayed
locked
happen
##boro
independence
concluded
rapidly
exclusive
triggered
erupted
society
ambassador
honda
suzuk
gross
kir
ports
ramp
vision
wear
##uz
##equ
##ped
##20
##erie
##enters
##atile
##eted
##agers
spa
alt
sep
weekly
maures
##ocked
glazer
refin
protesters
student
urging
household
valu
##mingham
activists
clinched
kenya
significantly
shawn
birmingham
submar
linds
atmosphere
hamstring
ho
hague
ian
iow
nc
pages
rio
yell
yug
##kok
##words
##ila
##tery
saving
reput
trump
bru
##ongyang
medium
longest
relatively
stockholm
evolution
farm
employers
ballmer
##uja
junk
buildings
bangkok
blasts
##aska
electricity
earthquakes
replacing
guerrillas
jonathan
immigr
diamondbacks
pyongyang
concessions
museum
mumbai
mauresmo
cert
wish
yield
##rass
##10
forg
##ister
outcome
notice
belong
detain
##lining
receiving
experi
listed
##ospace
laboratory
involvement
leaves
celebrated
alexander
ramad
adopted
occupied
assassination
removed
taylor
embarrass
unusual
tsunami
iyad
kaza
lc
ling
length
rf
rim
##dro
##bon
toss
ata
atop
##emens
unable
resident
serge
##ogue
phishing
electoral
wouldn
emissions
fallen
enterprises
controls
judges
respect
settlements
negotiators
1990s
mortar
distribut
suddenly
eriks
iowa
kazaa
##bod
formed
##essor
wash
##iev
slid
rebound
publicly
negative
poison
juan
louisiana
appealed
shrug
integration
flew
refugees
battles
dubai
siemens
eliminate
teammate
garden
quarterfinals
crystal
endangered
valuable
bamb
dot
eis
mph
sar
##ala
wealth
incent
bruce
bidding
singles
hander
walker
direction
foreigners
violations
##otten
##web
satis
unveil
silv
affect
hopeful
undis
##eva
cooper
weighed
orioles
sponsored
method
bt
fill
kurt
lie
sort
viv
##yton
##zard
stuff
##rie
comprom
agric
sco
deser
maver
##atched
gene
terry
deton
##bridge
mete
metro
behav
trees
pulling
##umbling
finishing
updated
cheaper
pentium
teenager
celtics
sustained
goran
eriksson
eisner
dere
ic
kath
lakers
mate
ripped
wine
##gment
##hal
##fc
##isive
finland
##etworks
flow
##central
releasing
videot
typ
changing
magic
murdo
subsidies
repeated
murdoch
aaron
bure
damp
fool
gib
kel
lin
tivo
ug
waves
##rical
##lus
##bel
##omet
##echn
shake
exit
##ivir
brett
permission
peyton
##uez
scan
elite
accus
##eley
##encing
colon
posting
hero
embr
rebu
11th
extinc
wreck
cambod
cheap
dawn
gathering
taipe
uncertainty
wizards
taipei
59
83
gaz
mick
rape
##part
##wr
##organ
##ateral
##istent
unch
alital
agenda
##oured
##abe
upon
branson
cape
troy
antivir
devil
charging
merge
authent
graeme
tourists
damaged
audience
triple
pirates
disappoint
ambitions
ravaged
agreeing
southeastern
aerospace
necessary
agricult
alitalia
dave
fab
kee
khan
wicket
##rist
##rative
##has
##order
##anim
toys
##estyle
thatcher
que
usually
intention
prescription
bloc
accomp
poland
mahm
assists
guantan
knicks
senator
explain
insurers
idc
chipmaker
portland
privacy
emerge
maccentral
awards
intellect
overturn
established
floor
ethnic
catholic
antivirus
guantanamo
craft
centers
ride
wta
##iate
##stop
quarters
unkn
seats
enable
overcome
expenses
adap
buzz
mao
downgr
##ultane
trapped
tickets
deport
greg
michel
philips
closest
simultane
tommy
pollution
kingdom
jointly
route
observ
##standing
##through
observers
library
condemned
inaugural
wimbled
ferrari
collapsed
reputation
93
bele
mas
rating
rush
##iago
##gate
##inder
##ores
##arra
##opol
alco
interests
abuja
margin
upbeat
trim
helens
releases
##oked
guide
vikt
emc
handle
written
supported
contractor
facilities
breakthrough
##resp
publishing
buried
questioned
hydro
surprised
virtually
animals
broncos
lebanese
##process
rodriguez
bosn
professionals
wimbledon
viktor
650
du
eld
mud
math
ral
rash
sight
##rand
##rising
##body
##ken
##erly
##ono
##state
##olves
##agen
##essing
reporter
teach
slash
workforce
steep
relay
##ventus
buyout
jobless
films
juventus
balance
freshman
telecoms
disappear
microprocess
##aguered
sensitive
aziz
2012
lycos
cornerback
steroids
fossil
beleaguered
87
ntt
vari
##due
##mand
##tra
##gra
##ingly
##stre
##repr
chosen
pricing
usual
recalled
button
peak
manned
norway
guards
120
basic
violating
divided
philip
investigate
##shire
barrels
junior
snap
borrow
choose
ukrainian
houses
owen
dubbed
vulnerable
vulnerabilities
feeling
bloomberg
belgian
mysterious
symbol
components
conglom
shadow
lindsay
##echnology
hide
kiev
lying
nato
wearing
##bat
##zed
thai
##enport
stir
##otive
##utch
##chenko
##osa
itanium
examp
sov
warplanes
amelie
downt
swapping
stripped
striking
imac
davenport
radcliffe
damasc
##attan
volatile
santiago
llc
sitting
battled
philippine
sleep
abbas
abbey
beheaded
mcdon
laptop
overcame
derek
damascus
cate
craw
fu
fals
hip
hij
jen
joy
kum
pover
rup
##aware
topp
worms
abroad
warns
retain
swift
steven
stepping
empt
wired
mids
advice
matchup
basis
harvard
portug
hammer
checks
required
automotive
sirius
integrated
battery
suspicion
wholesale
survivors
yellow
meteor
poverty
beng
daim
gd
roster
u2
##cling
tott
##iters
##ouver
##acular
reign
unanim
##ipse
trucks
miners
attach
longtime
southwest
active
18th
farmers
popularity
berk
berth
slowly
lifting
frankfur
samarra
lucrative
monitoring
baby
napster
##mandu
categ
daimler
91
aa
none
pu
vanc
##networks
##gins
##vic
##itas
##eces
forth
offsh
clock
opens
note
electrical
ambit
slower
slashed
percentage
regions
genoc
courts
extrad
realnetworks
shortly
televisions
##efin
paula
rankings
purp
panthers
negotiating
views
bolster
tribun
rums
elsewhere
resumed
swimming
permanent
lunar
vancouver
denn
fest
##ux
##oil
##rd
##tor
##icated
##ampton
spark
complic
sue
cloud
exporter
twin
ort
indefin
moqtada
endors
becomes
depot
equal
blocked
burst
jeremy
reveal
clinical
battling
settlers
inventory
owens
liberal
disruptions
girls
semifinal
achieve
medicine
muqtada
desperate
eclipse
lcd
soviet
rupert
frankfurt
ambitious
rumsfeld
97
ah
aide
gill
gift
nature
tar
##rum
##lav
##mal
##aying
##irts
unique
spoke
compound
sequ
incumb
##endi
appoint
warm
##irez
runner
hosts
batting
chargers
revive
shortage
captors
sweet
identification
treaty
effectively
ramirez
psych
charlie
meaning
scram
bernie
vulnerability
derail
spectacular
sacr
magnitude
jaguar
conglomerate
fault
##sl
##ulk
##agn
incident
uprising
latin
launches
tradition
adds
##neapolis
counterpart
neighbour
reducing
##ographic
pharmaceuticals
rigging
savings
physical
experimental
gateway
manhattan
unknown
tribunal
danny
gay
pier
##gl
##irt
##chrysler
conven
shape
##iano
##quille
scen
minneapolis
commod
boys
consult
buoy
maur
planets
##coni
remark
rebounded
bombard
acquiring
rivalry
alleging
agreements
##amento
purport
cuban
canceled
celebration
astronaut
moments
shaquille
bolst
tensions
bloomfield
delegation
tanks
persuade
items
kuwait
submarine
tottenham
daimlerchrysler
genocide
ortiz
sacramento
fame
fidel
hed
luk
rice
##vis
thor
##ira
##rawn
##ighter
##akh
unle
plug
plagu
##iform
intends
##icken
presented
announces
##ode
raw
breach
timber
1996
withdrawn
afford
arrival
climb
struggles
limits
matth
broadcasting
drawn
conservation
mystery
phillies
##rahim
intellectual
incumbent
curs
lure
nan
tort
tact
##iy
##oa
##power
##11
##itals
##ilateral
##isk
##ela
##reh
##acom
##olas
##unction
proof
conway
conrad
shed
##apl
suing
contain
syrian
confront
nearby
##print
falls
eddie
installed
merrill
completely
calend
reader
featuring
exploration
sporting
pursue
abandon
reliever
ibrahim
husband
acceler
escaped
multimedia
unrest
tycoon
coffee
montgomerie
detonated
baker
icon
lam
mits
omar
pensions
##ram
##vy
##ja
reass
excess
plum
fines
##isse
served
syrac
warri
milestone
operate
delaware
dealing
wrest
actions
ess
embry
##weg
greenhouse
louisville
dominance
suffer
squee
luis
disappointed
unders
ownership
andreas
adopt
moderate
slammed
penalties
jamal
registered
temporarily
xinhua
dhaka
kathmandu
##stream
syracuse
98
aapl
bog
bold
lsu
sender
zur
##rant
##sa
##icial
##opes
##acks
abrupt
intr
##ullah
retreat
norweg
geneva
sells
custody
collect
breaks
##ukat
skipper
shaukat
absence
complaint
cartel
grenade
advocates
hughes
encounter
mcdonald
73
ay
boo
langer
puts
tx
##overs
##ping
##ington
topped
##ita
stamp
deg
alum
grace
shared
paraly
southampton
missiles
strongest
tradem
aviv
competitor
##ippers
thousand
affili
recovering
luke
differences
overshad
animation
individuals
briefly
unfair
abandoned
complaints
neighborhood
originally
lenovo
maoist
norwegian
900
caf
hers
mood
sick
trem
tender
##ror
##zn
##arch
todd
##itable
stolen
reiter
chrysler
bear
whom
##rage
##raib
uncover
compar
abc
intent
indo
blade
slum
medi
austin
##iously
provision
payroll
##eneg
owns
rivers
verge
metal
regulations
clubs
safin
capped
challenging
colleagues
towns
travelers
affected
discussions
purchased
telephony
illness
selected
grocer
columbus
cosm
flaws
helicopters
devastated
ghraib
tumbled
overwhelming
jamaica
suzuki
rfid
plagued
zurich
nj
td
tore
tree
##sen
##jo
##ayers
anderson
stal
print
##ulating
grade
helps
eastman
130
departure
doctor
erp
statistics
blackburn
premium
shutout
tracking
berlus
pleas
350
49ers
ronald
punish
genetic
distributor
berlusconi
ich
jerry
mg
mv
nash
om
pd
rena
##bal
##po
##water
thinks
anonym
##icts
##ilo
frag
beer
ark
elena
slip
trojan
communication
keeps
robinson
subur
damages
guns
estimate
dvds
locker
diplomat
##bourg
demonstrated
mourinho
stanley
ovitz
variety
example
matthew
gb
gang
hire
mig
ted
##mail
##gio
##week
thwart
##urity
comcast
frame
chat
convers
unh
usc
clues
warn
polish
surve
fee
insists
drinks
paypal
extreme
veritas
popul
##uctions
islamist
entrepr
importance
pursuit
mourning
mistakes
dialogue
slugger
boycott
accusations
disappointment
mahmoud
calendar
01
dies
fernand
g5
hid
kyle
les
tying
uair
vince
yud
ther
##onz
proced
uniform
alab
##ource
##ooding
arist
disgr
meets
sla
counted
infected
signals
belar
pressed
campus
profitable
patient
opposed
healthday
interested
interesting
escape
mails
treated
duty
combination
statements
ankara
guidance
hampshire
casualties
ontario
aides
ayad
bc
cargo
hend
sank
##hoy
##fs
##card
##icate
##ouri
stages
reward
##chet
cham
leon
spurs
enth
##aping
##ardy
click
twenty
marat
flooding
secured
##cont
##azi
finale
standoff
maine
eval
shortstop
mys
rises
mexican
protecting
institution
kidnapping
plotting
gmail
raids
delegates
component
silvio
videotape
entreprene
yudhoy
yudhoyono
ie
mam
qantas
sne
wolf
##ls
##fr
##bro
##erable
##idia
straw
staged
charter
beaut
resorts
presid
corresp
crunch
##eyer
businessman
glass
hitter
approxim
merch
visa
experiment
optical
treo
defeating
connected
favre
artest
roads
plea
santander
detailed
strokes
inspired
legislative
lackl
##guard
firewall
vivendi
mvp
03
bm
cul
nad
##wire
##jet
theory
##arks
##ayer
##acas
##otic
atp
lean
##umber
hait
indicted
##anted
adults
lah
amate
prefer
105
strongly
susilo
programming
violated
visited
netfl
portal
massac
summ
volks
identify
blasted
tells
counterfe
platforms
animal
##keeper
venezuelan
malaysian
benchmark
oriented
architecture
culture
nvidia
restaurant
p2pnet
soyuz
detainees
bengals
offshore
alabama
dug
eat
nairo
pas
pending
pino
##laim
##bles
##kin
##wagen
thunder
##stri
queen
##asted
monopol
##ifts
serie
##erald
##encia
surpass
reduction
swap
scheme
smooth
dealt
stream
keith
rover
immin
studies
##adres
valued
##uggets
kids
tyler
clearly
panama
rockies
gamers
distributed
roma
occurred
paink
##rington
rescu
properties
##break
mistake
venus
freddie
bertrand
pioneer
pornography
kazakh
bambang
bureau
volkswagen
nairobi
pinochet
bail
jol
kur
mmc
nuggets
pump
rent
rib
tip
upper
##oven
##gets
##bell
##py
##cats
##inated
stiff
##oslav
##ulent
spurred
##ucky
intercept
containing
manny
lav
declining
##phones
efficient
roeb
brewers
handling
##ika
##ikes
richest
pullout
attempted
tracks
drawing
acquisitions
filmmaker
tribal
cocaine
teenage
faith
batteries
hubble
##orpor
falcons
comfortable
marriage
character
kirk
portsmouth
aristide
enthus
presidency
netflix
roebuck
cig
f1
jint
nfc
padres
ske
wn
##iences
##rimin
##nm
##bron
##ql
##eder
anx
sting
chose
##imony
qual
dean
exter
##ripp
interactive
arlington
accord
deciding
carmaker
teamed
salary
drama
deliber
johnny
refere
refusing
valencia
1998
dominate
doubles
funeral
patches
honor
academy
roughly
exercise
chaos
biotechnology
arbitration
shrugged
wreckage
accomplish
approximately
bian
bust
fold
hud
ka
lump
pope
ros
soun
##eers
##lights
##fast
##book
##wat
##30
##ayan
stable
neither
sher
bankers
redmond
researcher
schwar
##atham
nationals
threaten
##atories
harrington
campaigns
collection
listen
weapon
journey
waited
introducing
keny
mercury
grizz
catcher
liberty
guerrilla
repeat
favourite
guidant
mavericks
ralph
berkeley
ichiro
imminent
rescuers
kazakhstan
schwarz
aven
fcc
lord
nerv
pierce
##more
##onom
reorgan
##agger
##essions
alaska
outstanding
##orders
booming
milose
assum
engaged
talent
##iamen
emir
hosted
terrell
midnight
middles
empire
banning
turmo
simpl
valent
revenge
loud
shipped
volc
calc
##while
tougher
mutu
fixing
jeffrey
crossing
knockout
unsolic
spreading
fighter
stunned
primary
breath
breeders
dynam
yugoslav
unchanged
simultaneously
purported
essential
amateur
jintao
souness
turmoil
unsolicited
06
aver
dair
gut
hil
kat
kris
nich
ot
oust
pk
sut
tear
##iece
##gie
##jave
##isan
##rote
##ads
beir
##osite
unse
lebron
except
compreh
aging
incorpor
##obod
scar
minim
mojave
slump
##angle
##ologist
militiamen
supports
guys
raises
viacom
bats
##closed
stockp
threatens
bombed
basque
useful
lowe
urgent
harris
broader
fundament
reserv
administrator
bayern
laboratories
prepares
continent
specialist
arrive
holidays
aids
downloading
mounting
rains
spotlight
deterior
attorneys
eagle
dismant
bullet
daughter
catal
pti
innoc
salvation
promoting
attendants
encouraged
stanford
wrapped
hanging
abdullah
proceedings
correct
hellip
behavior
agriculture
downtown
remarkable
correspond
cigar
milosevic
09
bash
bah
bcs
fbi
lor
##ean
##gun
##person
##wing
stone
stability
##acts
reop
##vered
##occo
##alling
##umi
##eller
arn
##antly
appr
corps
slobod
salt
##ledge
##airn
schol
missouri
##eeves
costly
singer
walking
mainly
135
universe
investigations
metres
embargo
explosive
gunfire
factor
cycling
burning
doublehead
deficits
pirated
romania
survival
veterans
stemming
earnhard
adviser
pieces
occupation
symbian
ruud
extremely
adjust
memorial
landslides
renault
miguel
volcano
dairy
beirut
slobodan
earnhardt
bp
dough
ft
fum
hs
hart
jur
nat
sacked
waste
yes
zook
##mates
##bow
##ci
##win
##works
regr
asyl
##andan
##fty
acting
brings
highway
aires
max
parad
imposs
doors
##itsch
economies
wright
writing
verd
mainstream
labels
13th
##brough
strain
##comm
secretly
australians
expecting
purdue
techweb
arguments
knowledge
spani
widened
displays
bulls
branded
learning
bolton
grip
enables
enabled
enjoyed
frequency
cambodia
keefe
belarus
asylum
cement
dale
fuj
kan
lane
nbc
rack
rss
villa
yush
##tv
##bast
##wolves
##inary
##oli
##uth
sao
plate
arts
##ishi
opter
manip
##izz
decisions
caracas
professor
killer
stead
191
hosting
##prom
camps
midway
148
##iffs
sheikh
arrests
policemen
augusto
negotiate
entr
quarterbacks
225
please
strengthening
802
findings
nobody
bernard
sandwich
influential
fatal
error
academic
frozen
soren
johann
crawford
timberwolves
reiterated
grizzlies
aj
cook
dim
eg
hover
kost
moss
mention
nist
tons
##tz
##erb
tox
##ecurity
##etooth
##igation
##oted
##char
fract
proper
uncon
spra
##bert
manuel
blocks
structure
decisive
regain
##inking
homers
radar
##ovan
##iki
bali
tvs
cybers
improvements
creditors
gambling
deeper
##heim
brokers
selection
disrupted
mrk
interface
recognition
birthday
bluetooth
samples
rwanda
weren
undisclosed
compromise
false
unanimously
buoyed
hedge
trademark
yushchenko
cripp
dup
diet
ech
fier
gat
lone
mice
oreg
svet
ward
##rell
##lana
##pen
##65
##stra
##step
##asia
##urance
chron
##imate
prest
concent
##agra
##asty
exist
sebast
##ours
incred
incoming
gray
elig
##ubishi
##izumi
##manned
backs
maxim
attackers
reliance
pointed
testified
testimony
campbell
140
processes
##brid
tyrone
desktops
automatic
golfer
purchases
resolving
municip
maintained
enhanced
register
applied
surprisingly
obtained
orbiting
assessment
maurice
mitsubishi
lackluster
wnba
middlesbrough
doubleheader
opteron
oregon
aston
banc
hi
hem
lunch
mi
rb
rober
riding
tm
wrote
##nd
##mad
##bank
##cr
##care
##x1
##zone
##orious
##armed
##itary
##elro
monitors
offseason
cloning
##ometer
##ichiro
outfit
blaz
airlin
##oya
101
formerly
holmes
palms
glitch
attacker
attacking
anywhere
solve
hardly
wells
transaction
array
turf
successive
likes
trainer
alexand
circulation
cnet
resolved
eleph
argentine
organizers
koizumi
reaction
nomine
bargain
libraries
emotional
hornets
dictator
gibbs
adapters
massacre
impossible
svetlana
roberts
750
jar
jenn
meyer
um
wto
##erous
##inos
##esburg
##stad
shattered
unp
spots
incidents
clara
abuses
margins
brid
outgoing
minds
manila
earl
partial
generic
underw
suppl
headlines
depend
halted
formats
stories
equipped
regulation
obv
subscription
delivering
questionable
royals
prosecution
##borough
declar
throws
bullpen
franklin
integrate
corey
deployed
eccl
encourage
frustrated
praised
album
incentives
indefinitely
emirates
comprehensive
nistelro
nistelrooy
bounced
eating
fare
fake
kings
mech
nurs
von
##cane
theo
##stam
whales
##ema
enemy
heels
abid
grim
crushed
disab
declines
muscle
holder
remarks
delight
20th
legit
remainder
visits
peaceful
funded
campaigning
personnel
mci
robb
casey
paulo
activist
oscar
junichiro
qualify
conviction
fifa
readers
focusing
resulted
hunger
dramatically
covered
wilson
recommended
ancest
interfax
apartment
tendulk
nicolas
experiments
sophistic
substantial
satisf
kelly
skept
nervous
ditch
dipped
eta
fo
jp
jeeves
kual
ore
tired
util
##mare
##gling
thier
##ura
saints
##agar
shy
haul
clust
conte
##ffield
investing
strange
carries
mild
amend
slim
implant
##licit
fedex
youth
founders
writers
specif
147
conceded
sheffield
corporations
collins
locations
safely
challenged
freestyle
seemingly
blocking
hospitals
cheer
audit
layer
ansari
institutions
extraordin
opportunities
followers
lyon
chilean
dogs
reflecting
errors
jaguars
praise
extinction
ahmed
haitian
painkiller
lumpur
sorenstam
ecclestone
kuala
aware
cough
gest
hin
nbs
pose
##sp
##nn
##gc
##best
##esco
##oria
##enos
##arely
##eli
##etown
forms
##utt
proc
##aken
##akar
lex
##ardo
scam
blind
accur
##mann
nightmare
104
smoke
mainland
##offs
attempting
grounds
picking
weakened
alongside
awaiting
upgrading
misle
shootout
shocked
scrut
advisory
willingham
fulham
sideline
buccane
collaboration
responded
sprinters
marcus
rotation
gazprom
dennis
warriors
arnold
municipal
tendulkar
thierry
buccaneers
gona
oval
pill
pix
sg
sights
section
xm
##mind
##vo
##wise
##inum
##itation
anwar
##sted
##aco
asbest
isol
saved
unn
unmanned
sealed
##aby
expense
abusing
brill
adm
novel
##herford
airports
carbon
teaming
buenos
norod
undergo
bargh
countrys
talked
signaled
steal
depress
autonom
##enne
eds
window
detect
controlling
torr
cellphone
panels
unveiling
preparations
cycle
##valley
spotted
celebrating
boxes
representative
bells
answers
liberation
requested
printers
siliconvalley
odds
hawks
rutherford
sidelined
srin
unwanted
restaurants
rwandan
lpga
ultimately
riot
havana
uncovered
monopoly
sutton
abidjan
gonaives
asbestos
02
fon
han
honey
ji
jb
lith
tears
##watch
ingr
##iton
##ete
stuck
##iri
##irmed
##the
priest
shops
##iang
suisse
##abo
clashed
##ifer
scaled
2009
assigned
thirds
undergoing
northwestern
oldest
buyer
protected
handing
goldman
concert
hearts
bett
labs
divisions
visual
harder
discrimin
donovan
currencies
performances
##efe
mills
letters
convince
hybrid
represents
pitc
initially
cracked
stopping
laser
projected
derby
mastermind
rubber
aggressively
peacekeeping
chemicals
politician
neighboring
klitsch
coordinator
restrictions
authentication
qualcomm
palmsource
norodom
klitschko
550
bb
bac
capping
furn
hots
lights
ming
pig
ria
rely
sack
##uate
##uous
##mb
##mont
##gary
##vi
##igley
nev
chicken
##embourg
shui
##anded
ala
##ftime
clippers
trillion
brom
scare
highbury
106
colo
underway
traged
halftime
antar
communities
speak
clubhouse
loaded
ballistic
tourist
productivity
activated
volley
entir
arriving
calgary
reveals
##iveness
automakers
oversight
restructure
pledge
websites
penning
initiatives
appliance
luxembourg
beheading
creative
galax
albert
oxy
peterson
submitted
temperatures
external
johannesburg
nbsp
bone
pod
rans
##eer
##sc
##fare
##pri
##zing
##14
##around
##ilit
##uri
stabil
##unk
##osis
##riend
plastic
hair
##ella
##abi
##ifax
resh
married
brink
brady
cox
crater
moore
consulting
consequ
austrian
depth
posts
hitachi
advances
handful
equival
darren
robots
collective
100th
erics
bayer
difference
skills
cambridge
oslo
preparation
continental
coastal
racist
revealing
automob
browsers
sexually
griff
ultra
villagers
raymond
ideas
penins
participate
colombian
obtaining
constitutional
innovation
advertisement
compatible
legendary
sachin
invitational
kentucky
dedicated
experienced
lingering
borrowing
forthcoming
herself
doughn
extraordinary
srinagar
pitcairn
pennington
cds
fd
hott
mouth
pond
rural
tuc
tire
tamil
yang
##ray
##born
##inid
bee
concept
heated
##ensus
##kett
dece
sliding
slumped
assured
banker
confer
feels
otherwise
barred
opera
smugg
reluct
halifax
raided
grey
imam
numerous
restive
##rett
