[PAD]
[UNK]
[CLS]
[SEP]
[MASK]
a
b
c
d
e
f
g
h
i
j
k
l
m
n
o
p
q
r
s
t
u
v
w
x
y
z
##o
##n
##t
##s
##r
##e
##a
##v
##i
##c
##p
##l
##h
##y
##f
##m
##k
##w
##d
##u
##g
##z
##b
##q
##j
##x
##er
##on
##an
##in
##ar
##or
##en
##al
##st
##at
##ay
##ic
##es
##it
##ou
##le
##ion
##re
##ro
re
##ent
##om
##day
in
##el
##is
st
##il
##et
##ing
##ac
##ec
##as
##ig
##ol
##am
##ur
##ad
##ve
##ed
##id
##ter
##ce
##ir
##th
##ri
##ge
##ation
ne
##ch
##ly
com
ch
##us
##ow
##ate
##ak
say
##ra
##ot
##un
##ver
##ear
pro
##ut
de
con
##op
##igh
##os
##and
##im
th
##oun
le
##ess
##est
sh
##ist
##ff
##ld
##ct
##ort
##ment
##ast
new
ex
##ee
##ul
comp
un
sp
pr
an
##um
##ice
pl
##all
qu
##ap
##ity
##ian
en
##oc
##ight
mon
##esday
##ive
##ack
##ake
##em
us
##oo
##ine
wor
##ry
##ft
##pp
##ia
##ill
##ial
al
year
##art
su
##are
##ard
se
##ie
inc
##ect
##ain
for
##any
##ell
##ase
##ue
##ust
##ag
##our
##end
##ab
cl
off
##mer
##ip
##ant
##ace
sec
fir
##ber
exp
##ure
inter
##age
res
##ide
per
go
ac
mar
##ud
rep
##ost
company
ser
##ire
ar
win
##ould
##se
te
##ise
##mp
fin
##eek
##oft
##if
op
##ame
ind
first
##ord
mo
##ond
tr
##ong
ag
br
man
##ock
##ident
pres
##old
ad
lead
##ign
##ester
##ish
##og
gr
##ick
sc
##ank
##urs
##ile
pe
##iv
world
week
tu
be
##ite
##ss
cor
##ail
wed
monday
##ose
##pt
wedn
wednesday
##ound
tuesday
cont
rec
fri
##ursday
thursday
##amp
at
app
##ork
##ach
min
##uter
##ru
intern
president
##ass
to
##ance
##ore
##ome
##ory
##ction
friday
##hn
jo
##ary
bl
##row
##ub
bus
dis
##oll
##ke
he
##ers
##ount
report
acc
##ash
co
##ree
##act
##du
##rop
##ence
tim
##one
##qu
fr
game
sun
last
##ict
##ational
ira
corp
mic
##arter
play
iraq
##ican
take
yester
yesterday
high
plan
##ble
make
la
##ens
ann
ear
##ood
##arge
ph
##ous
##gh
mark
offic
dec
##int
day
##ning
quarter
##lo
unit
##ason
##vern
quot
eu
##earch
peop
##ition
##vice
##iz
time
or
##man
##av
##ern
comm
##oup
##iss
att
##ey
fl
govern
air
ele
pre
price
pri
we
oil
bu
cr
sat
sy
war
li
month
official
sunday
##eral
##tle
##vel
##ware
net
car
##line
##ical
would
def
##ounce
government
ro
##land
pol
part
##xt
##anc
##ade
end
united
##gr
##urn
cons
ret
bo
##ros
team
group
amer
is
##der
me
##cent
des
##ale
second
people
tec
announce
today
open
state
##ton
##ird
back
##her
##orm
prof
market
could
count
next
service
secur
##ook
##able
soft
mil
minist
##oss
set
##ude
##ult
sl
run
season
af
##olog
##ely
##vest
ma
percent
##atch
night
kill
##aker
##elp
##reat
##outh
##ave
invest
am
micros
satur
reg
saturday
ev
ass
bank
po
europ
work
##ral
cap
europe
int
software
share
security
champ
ste
##sh
##own
produ
##ies
##me
third
cent
use
expect
nor
##ally
imp
champion
minister
##iness
##work
str
south
big
sur
gen
news
ter
##up
##cy
techn
on
##io
##son
business
may
##con
##ner
##ina
microsoft
##uss
##stem
inf
country
par
med
col
milit
no
agree
large
stock
record
conf
computer
dem
mus
wh
##ision
##ecut
internet
get
##ital
##ubl
hold
brit
vict
eng
##ange
north
##ember
out
##ger
network
fall
##ah
top
york
au
##use
##gin
international
##way
base
##ith
reuter
##ph
american
help
technolog
##ower
reuters
##ild
##ans
##ier
##co
##out
system
supp
rise
so
##az
##ough
ins
##iver
ab
##air
##ication
fed
##ball
##ates
##ator
##ium
##lease
sale
##alk
former
cour
leader
home
city
research
##ague
nation
aust
##oot
show
start
sch
sw
release
call
grow
bar
##iant
give
long
##cess
##ief
##ince
come
econ
econom
near
##ink
sign
technology
##ert
victory
##eat
election
move
offer
rem
##ious
pal
gu
oper
##ther
##uc
attack
early
##rug
as
force
maj
see
##ath
##unch
giant
late
##lude
##ecutive
##iel
del
jap
deal
japan
major
kn
austral
maker
european
##gle
tra
sm
##ron
##ency
player
national
##eep
league
profit
##ual
##od
red
head
indust
##ese
hit
final
with
stri
law
##ient
court
accord
dep
##ib
##less
russ
rel
states
##ington
federal
john
prov
##lear
##urr
##ission
point
##und
find
prime
pay
##iam
##rael
chief
israel
san
ra
##ule
tele
include
test
##velop
publ
hal
way
##ull
##ute
web
##ship
sport
##omer
well
stre
##enn
bre
##ope
##ury
develop
vi
search
##ote
rev
bro
begin
china
buy
bush
meet
all
##let
tri
cre
oly
olymp
hand
launch
good
##ica
up
executive
##omb
least
quick
leave
hou
##he
##ony
##alif
coach
wash
##istan
##ang
phone
low
post
over
online
##orn
power
sell
##ility
talk
close
##ich
cut
incre
old
olympic
eff
##ize
##per
ever
##ene
police
british
cup
progr
##min
det
##aw
arm
##aim
##ense
##attle
##inian
charge
host
##af
oct
##ival
washington
##other
##ield
##fo
contin
look
cost
##gy
industry
##ful
can
series
bec
another
##ollar
ref
palest
##ular
##rive
job
since
union
##pect
dollar
palestinian
em
elect
prot
reb
mob
##ran
##pr
foot
trade
product
el
ant
fire
##be
music
put
add
gre
sus
shar
##ater
##ource
right
ext
camp
wind
sept
press
##ush
##ider
space
bomb
##raw
##ution
hope
##ror
even
round
ed
dat
##ind
##ai
##get
##ject
bag
##ract
conc
sub
bid
like
##over
increase
##ix
bel
iraqi
##ative
beat
miss
pass
claim
wire
firm
face
continue
rival
mu
##rove
nas
strong
general
##back
##rupt
program
become
im
##aly
##ty
##les
consum
mobile
ath
##vent
free
enter
drug
sing
military
##head
##ager
##info
quickinfo
ger
##ool
stand
loss
line
form
try
##loy
##ady
inj
spe
it
contro
foll
av
commun
score
canad
##lin
##hd
return
sen
india
##ax
##ark
##umber
##oman
prop
##de
glo
consumer
pat
file
demand
many
mid
half
##ward
gold
stud
threat
act
ago
insur
turn
##ife
keep
still
spec
follow
##oci
baghd
investor
baghdad
##ret
leg
##ky
inst
source
terror
mich
##ley
reach
tit
##bal
know
##form
lond
adv
london
goo
expl
number
tro
##com
vir
opp
wireless
user
##ont
rate
west
send
retail
rest
cust
##ump
commission
championship
##ctor
street
##ivers
fight
compet
bill
##leg
build
##gan
recent
sports
public
google
dire
pit
##tain
##ouble
key
##oston
calif
mor
##ether
trad
ce
financ
much
##cl
fore
deb
break
region
##go
##ross
lose
boston
want
##iew
growth
chip
nuc
associ
result
mer
agency
remain
vers
##ress
nuclear
hol
##ench
manage
##ible
contract
dav
##ating
ib
rule
earning
##down
far
##app
australia
hear
##ourn
##isco
##osition
tell
ara
ca
four
iss
place
scient
raise
##so
england
##uel
franc
##ior
foreign
met
##iff
dead
allow
football
quote
##ily
wr
##ison
window
global
match
##ration
site
##ait
emp
mot
##erence
east
fourth
issue
support
##alth
drive
##ority
aug
change
economic
fut
afr
dig
star
polit
ang
lab
need
ge
vide
viol
presidential
engine
nearly
israeli
store
pak
##ism
desp
financial
manager
effort
##raft
##esh
name
process
suc
##ug
lin
member
customer
bas
militant
version
tou
fund
##oy
rad
future
sever
pack
pakistan
pop
indian
sol
acqu
economy
##aza
ahead
russian
##duce
die
despite
do
hard
secret
fam
house
troop
vis
around
##erve
div
past
tw
stra
party
auth
ibm
##dy
strike
##ghan
care
poss
kore
main
phil
worker
fan
port
race
wall
also
##pl
dist
uk
##ux
warn
dom
gain
rock
real
school
equ
rece
inv
peace
hurr
hurrican
bring
investig
##eal
sox
fail
##ok
##ott
depart
card
disc
trans
ham
pc
capital
hist
##cer
concern
datum
##pe
afghan
title
woman
##atic
america
##ather
spend
##aign
scientist
##sc
windows
interest
##acle
athens
video
##ific
order
broad
vote
##ael
##ocr
##ify
apple
rebel
profile
life
hurricane
will
har
campaign
agreement
##ker
step
field
##tim
##ronic
##ster
##itor
je
tar
##ida
##oward
##ieve
lit
univers
person
gaza
pa
sud
##ober
battle
drop
il
##su
##ep
short
democr
hum
nov
october
coun
september
##ov
organ
health
char
french
control
brow
##ston
design
touch
boo
##port
small
bra
might
case
##rest
center
australian
appear
lo
##ik
office
appl
##ones
analy
corpor
mart
seek
ap
watch
##fact
intel
term
##rel
ob
##lege
##br
prom
aut
dr
yard
##ins
regul
conference
aim
##lim
hour
jud
##rist
russia
provide
department
curr
##ze
employ
angel
flor
server
great
##ne
##adr
every
##ession
success
land
##olve
iran
several
quest
##ham
club
under
mass
##acy
whether
sim
ener
electronic
digital
think
settle
##by
geor
fe
##uk
down
##lam
est
tax
decision
crude
inform
accuse
oracle
##ensive
death
target
board
##off
##ts
chair
dar
michael
##ike
francisco
##red
vo
mc
##gent
##ler
##itt
southern
##icket
##ness
val
japanese
boost
energy
political
loc
ow
telev
supply
wal
medium
northern
##ago
##lete
saf
cell
##ated
create
slow
##enue
##mber
nove
beh
list
californ
##inal
university
human
november
improve
ask
florida
outs
mos
yank
hot
tor
perform
meeting
##prise
##oint
##hold
##ape
little
due
management
islam
rank
chic
britain
communication
##erry
medal
operation
##empt
stop
device
##iger
away
bad
hostage
central
army
defense
nations
speed
kid
sudan
mail
##atter
##irm
admin
id
administ
goal
sum
sold
super
across
television
california
reserve
fast
##lant
##idence
ip
##ney
retailer
crit
morning
motor
level
soldier
amp
##ons
emb
without
pitch
##ization
ball
sem
##osp
authority
ast
chicago
##ij
bow
##ole
##rea
bankrupt
chairman
##change
gl
##ection
food
##mit
injure
linux
question
weekend
prep
priv
lik
##allen
mod
##blem
susp
account
##cept
application
problem
##ane
challen
##imate
secretary
mill
consider
side
exchange
let
los
quarterly
visit
##ipp
gas
peoples
gra
analyst
judge
france
information
ur
forec
straight
fil
canadian
shoot
earth
peoplesoft
houston
forecast
##ex
neg
##ension
lou
double
##ential
arrest
less
##urt
rally
decide
##eration
area
push
grand
ty
cause
##ees
##set
trial
alm
rich
history
action
##uge
mess
clear
pet
inning
den
among
study
david
##top
##ament
revenue
believe
touchdown
chec
barrel
##we
spr
##estern
attempt
child
nasa
senior
paul
dan
william
prev
august
atlant
money
korea
##eng
republ
join
ari
pros
fuel
threaten
tom
stad
event
er
black
emer
ple
division
cle
##dle
yankees
##hip
almost
##unt
tex
airline
##ately
suspect
bay
euro
stor
throw
stadium
pur
##cial
##thing
baseball
feat
iv
##ser
##edly
pull
green
defeat
receive
##nap
wound
##enal
kerry
##cc
ban
tur
access
cri
fear
lt
##ience
##uj
##lex
manu
association
##aper
diff
popular
full
anti
dam
minute
investment
class
##ership
prem
performance
##ability
##inate
resp
cash
##fl
heav
flight
activ
behind
likely
thous
explos
thousand
##rib
##vers
##da
##omet
sharp
germ
manufact
officer
link
amid
##oon
##cast
commer
tie
ltd
toward
administration
##orter
appro
soon
labor
texas
##ille
mem
##icy
##oti
block
tour
##fat
personal
ve
##oid
##fur
##maker
##ready
already
mal
body
mult
arafat
chin
cam
##vert
jan
##pre
##ket
station
prison
fact
tech
##suit
strug
conn
##arm
##ling
##ece
toky
possible
darfur
negoti
decline
bankruptcy
tokyo
defend
pan
##lect
desk
##bc
init
ju
##tern
white
lawsuit
infl
challenge
foc
vol
##ta
storm
publish
##rier
afghanistan
##asser
##veil
unveil
ent
train
career
project
quarterback
repl
paris
soc
rob
##onto
radio
pot
toronto
yet
complete
confirm
coast
##ona
focus
germany
##que
family
cop
##ising
canada
disp
western
withd
gun
feature
withdraw
##aff
left
sug
import
gam
jam
##verage
bal
##idate
carry
acquire
jer
##han
weap
louis
poll
shop
intro
seem
extend
heart
cand
conv
current
##isk
policy
local
weapon
ver
decade
##ways
trading
##ipment
williams
chinese
##stru
requ
ars
german
injury
##bur
approve
struggle
civ
production
##ck
and
director
mac
water
##ety
##vey
violence
mag
##res
chance
jun
guard
within
development
african
##itive
desktop
sal
##ena
sk
takeover
island
regulator
angeles
jump
##load
weak
muslim
corporate
expand
competition
draw
cond
##ume
standard
##chester
just
##cil
##gest
george
replace
coll
##ox
tre
dev
spok
alleg
civil
special
outside
prepare
sil
##fit
##ift
##ually
eas
town
finish
appeal
researcher
aff
suff
##cover
travel
avail
previous
position
##icle
opposition
##ev
delay
shut
deliver
my
##come
##ota
spokes
##edule
env
aid
tool
fav
##umb
must
fra
park
hosp
employee
##ric
##wide
tenn
##ef
crow
##ically
blue
not
recover
##gress
council
fig
sony
yasser
stake
strip
hospital
ir
jet
madr
champions
communications
opt
youn
##iday
##ander
tv
enough
provider
effect
insurance
ny
##ba
cred
fresh
sep
mean
holiday
##att
expert
manchester
capt
pressure
one
terrorist
involve
live
sa
suggest
light
##uck
art
retire
legal
journ
qualif
mov
track
beij
introduce
beijing
miam
reduce
spam
phot
manufactur
##icit
thing
schedule
young
investigation
##ength
miami
bowl
cy
##ung
virgin
##cri
##ics
telecom
ber
treat
organization
mach
americans
rocket
pract
africa
promise
urge
madrid
movie
##ulation
survey
risk
##itz
direct
candidate
bear
squ
##nes
##icip
upd
##enger
reject
though
heavy
potential
ry
##med
##era
##olf
ital
##lad
surge
figure
spain
basket
mosc
suffer
##zen
airlin
lim
road
cub
update
cal
tony
insurgent
moscow
stage
comb
##elph
kidnap
book
range
finally
os
##rian
ground
arab
powerful
hel
##sp
cho
outl
falluj
single
##ument
download
pick
any
annual
##east
owner
##ouse
##olution
dut
##ino
express
ut
cele
fly
indones
lift
crash
##val
shot
italian
never
worry
finance
college
private
copy
##lish
##iance
trouble
##ertain
mort
##holder
blow
sym
carrier
critic
yah
##ech
pred
##mark
fif
##dge
operating
yahoo
reve
reveal
##imb
ipod
##ville
worth
afp
##ention
mast
pac
##au
nfl
christ
ram
seattle
scre
discover
expectation
processor
ident
doc
atlanta
hund
spot
resign
hundred
mount
save
##inc
democratic
found
tourn
##ann
##phone
enterprise
tournament
dri
wid
mont
##ban
staff
braz
basketball
middle
##elphia
cp
roll
##ably
##ris
##aj
##bert
autom
bet
bene
spac
olympics
fre
jack
produce
##ault
read
journal
practice
##ender
arsenal
available
dip
newsp
illeg
check
aw
stay
cris
brazil
##iron
brand
disapp
##here
nat
##wood
wood
ceo
sn
##illa
canc
walk
##roit
dou
detroit
brown
million
ko
december
virus
newspaper
##icide
ton
##band
##ural
arrive
dispute
pil
airlines
sent
parl
nasda
nasdaq
philad
philadelphia
##grade
strate
separ
average
##ption
captain
write
##onent
##itch
islamic
suspend
damage
generation
catch
controvers
wild
plant
fraud
mile
wide
winter
appar
equipment
benefit
bit
award
sit
##ple
propose
span
kar
##bor
repres
image
explosion
king
lar
##field
statement
discuss
represent
bang
crisis
##ico
##for
##ming
##ula
##iament
parliament
##order
roy
republican
mur
##ays
film
strength
estimate
hy
along
rain
##ama
spokesman
later
view
protect
outlook
##ga
ready
somet
##ellite
fifth
##ye
satellite
##mo
cite
##icate
systems
mike
edge
golf
thr
##gypt
secure
explo
protest
ease
egypt
plane
dv
lock
steve
terrorism
##bit
##osal
shareholder
environ
arch
tot
##ceed
avoid
prosecut
emerge
front
message
don
exper
cricket
ms
playoff
homer
environment
qa
##ively
activity
browser
##inger
suicide
singap
niger
##ili
operator
initial
kick
mission
##ently
ship
accept
blood
##itional
committ
sam
winner
asia
singapore
lower
producer
asian
commercial
##ortun
seed
forward
ivan
##ny
thank
wait
allege
hew
dvd
##wan
##chase
advert
##key
entertain
##asure
debt
feel
pilot
summer
trop
##isition
airport
engineer
easy
##uary
acquisition
tem
##eric
##erate
friend
slight
proposal
veh
soccer
##iet
blast
medical
storage
##err
word
offering
happ
##yn
che
aud
lay
##rit
##itness
distrib
bud
##irc
vehicle
traff
relate
andre
bur
##eline
blair
##ibility
alex
limit
dow
jones
##ector
##eld
industri
##ied
##yer
##oul
##play
crowd
credit
oak
##sk
##atory
##duct
broker
bird
##ford
january
able
circ
joint
attorn
hotel
attorney
##ination
advance
tight
##andal
operate
dre
jose
model
cru
dozen
congress
debate
safety
predict
sex
moon
airways
prize
##vention
voter
astron
##ald
##eter
evidence
sant
rod
color
total
##rict
##ya
minnes
steel
##istic
agent
ire
##isc
purchase
chain
earn
bombing
committee
minnesota
fun
serve
option
cit
fine
##ings
content
partner
assist
whose
machine
deter
serious
accounting
entertainment
tear
##egr
##craft
dutch
rog
##gage
bond
rout
##dam
rebound
##den
course
sharon
##essional
eye
mom
rac
witness
##iment
clos
greece
##mar
##raph
##anch
warning
measure
##ead
compl
##ys
decl
spending
ireland
interim
mex
condition
johnson
successful
##ven
##erv
offensive
##rich
settlement
##str
code
pound
##ari
box
developer
mut
deficit
recently
two
counter
non
deep
##ockey
pir
sweep
export
##though
supre
dism
##ask
value
jail
tough
reason
hom
##hi
##cture
scandal
role
memory
bi
clash
border
zeal
boy
march
huge
rap
descri
pict
although
disappoint
aircraft
deadly
july
##yle
lawyer
hus
hole
poor
xp
singh
driver
##lom
##hy
##rol
stat
##ett
##ines
document
ministry
justice
hu
##ingly
plat
merger
nyse
review
italy
zealand
hall
##orrow
##rap
striker
diplom
##ria
the
palestinians
building
##epend
screen
##wart
broadcast
##medi
occ
##ves
##bi
prob
independ
cur
naj
##ati
ryder
hill
cleric
bell
fle
##ada
##oard
##lict
##hib
ariel
await
tonight
##mun
##uster
interv
premier
##struction
virginia
mortgage
fix
gri
tiger
##erson
signific
moment
note
clin
eastern
royal
dell
hen
nec
nba
##gency
opening
important
najaf
##time
##fer
##umble
planet
carol
consecutive
surv
surprise
capture
sector
resident
asset
oakland
wel
##ana
##aint
##ondu
##ternoon
favor
oh
vend
##anced
row
tai
##riot
afternoon
negotiation
##ansas
formula
age
enc
boe
upgrade
ben
prosecutor
##olis
spy
##minal
immedi
##ices
corporation
spanish
coal
room
running
palm
differ
debut
davis
qualify
platform
coup
certain
her
##hl
sue
conflict
community
jeff
vent
##inary
prove
frank
intell
protection
investigate
carl
bob
##force
vendor
ken
##ove
##lett
sharply
photo
session
yuk
##ities
passenger
doub
hostile
boeing
streak
cross
##sw
chel
manufacturer
fallujah
pace
##arra
##iod
instead
intellig
##apolis
parent
slightly
significant
##aut
probe
admit
higher
century
supreme
cisco
sky
prix
student
approach
panel
##hing
##ogether
display
##veland
cleveland
##to
##inn
soar
relation
cardinal
taiwan
lic
##ystem
picture
celebr
rush
illegal
vice
missile
explor
classic
cas
##beat
##igan
confidence
##itution
integr
victim
abuse
lot
##awi
camera
##burgh
yukos
##ecraft
require
spacecraft
declare
##ado
deny
connect
dall
kong
##ma
story
abu
sprint
period
raid
howard
controversial
##uff
##roke
##oma
patent
explode
cable
##ping
##isl
carolina
batter
resume
worldwide
delta
telephone
doctor
industrial
hong
together
##tt
##sid
##rust
##put
##irl
##imir
arg
compete
gar
##mate
##zz
comment
disney
insist
##ruption
##icipate
##onductor
hurt
sir
##right
securities
semic
dallas
hockey
wave
##mir
##eda
##lywood
weather
semiconductor
song
tal
vlad
##sea
##ograph
announcement
##elt
flood
richard
rene
exc
province
advanced
##uation
##ime
pitts
##scape
broadband
invent
##ulf
syd
legisl
auto
treas
sentence
interview
doubt
plc
science
trip
sydney
kh
vac
##house
common
james
peer
##gers
recall
delhi
pitcher
murder
vladimir
boss
der
fi
##stand
ariz
tel
##olph
##ification
index
crack
reform
something
cra
ray
sad
six
signal
sanction
##iny
korean
mexico
pittsburgh
rul
##oe
##ced
##ulate
refuge
solution
danger
##bod
##ini
##estic
speak
##coming
tennis
woods
kansas
pension
prevent
jean
##idge
detail
voice
##net
##iter
scott
patriot
##mine
##dog
nok
different
chelsea
fac
inflation
intelligence
ok
##agu
##icker
knock
refuse
hollywood
criminal
advertising
probably
astros
cast
##light
##ats
climb
slip
assault
massive
auction
lear
##nie
##rage
commit
deploy
package
roger
bol
strategy
blame
cover
senate
jason
yen
##nership
##mas
##els
##iser
##ized
amb
##oud
impact
domestic
request
esp
##inter
attend
ukra
crime
qaeda
venture
eag
shi
income
currency
bri
##west
##ister
colin
extra
ill
shopping
cab
gather
ide
##apse
philipp
pos
stroke
putin
uran
##ielder
dream
##real
electric
michigan
dominate
motors
##iscal
ten
##car
micro
robert
##na
indonesia
christmas
lu
##orld
##omber
microsystem
trader
uranium
vill
##uit
##ors
##owell
resc
##assy
subsid
charl
nokia
jim
ul
wake
domin
respons
ohio
treasury
##oric
##orse
##mpt
heat
smart
earthqu
pledge
veter
shock
orig
nextel
slide
kash
lack
matter
##ca
thom
ford
format
meter
safe
trophy
dise
nav
##face
convention
halt
professional
embassy
##ara
##ality
##eme
##aging
times
guil
opponent
pacific
kashmir
date
van
sure
demon
diego
##timore
baltimore
civilian
choose
neigh
dest
address
##scri
penn
ring
progress
##awn
republic
turkey
troubled
fiscal
kenn
son
##eer
monitor
data
dod
sadr
spark
disease
rav
##erty
subscri
virt
ron
##iving
swed
renew
##bs
##rem
pharm
flag
##iox
crew
athlet
opportun
kab
##ko
tomorrow
training
recovery
telecommun
happen
earthquake
telecommunication
##kn
resolve
##ailand
flu
pakistani
hait
vow
shake
atom
warner
##gery
inside
wrong
martin
guilty
##ature
thailand
english
approval
hewlett
oft
optim
##ookie
arizona
vul
unl
knee
studio
packard
prospect
stores
pm
pain
##book
##usal
liver
refugee
patriots
learn
##reek
ped
via
##abad
georg
cat
bron
refer
twice
dram
plead
budget
bul
bern
dail
##iece
plus
enrich
liber
surgery
politic
##weight
june
##itzer
daily
nhl
page
zone
##ery
##read
##ighter
unc
solar
jew
log
pt
ru
sound
sea
microsystems
##cel
##udi
stewart
remove
connection
cardinals
celebrate
opportunity
##por
##oting
conduct
sevent
marketing
amd
collapse
band
##ither
const
teh
coop
fighting
veteran
pair
prompt
previously
##iliar
mater
tack
##stone
really
##ighth
##illing
serv
##sey
##ahe
irish
jac
some
##sl
##oty
defensive
allegation
masters
lie
mad
##pan
##ingham
unex
fla
montreal
welcome
##gn
seize
adop
##action
district
receiver
kabul
vulner
draft
chart
core
surr
stem
und
impose
edition
jackson
nigeria
tehran
bry
mix
##arian
shr
##ellow
southeast
alliance
dismiss
often
##otype
client
truck
present
appoint
positive
hat
nin
rookie
suit
flat
regular
northeast
relief
traffic
##aster
toy
columb
##angu
treatment
journalist
apparently
adopt
fer
hire
jav
##aul
##oph
##emy
grant
property
independent
fair
##my
commissioner
seventh
cer
hack
##sy
##inge
teen
indianapolis
sixth
dolph
fish
##ob
##unes
anahe
##ipe
county
##ansion
anaheim
##nn
##roy
##aking
enable
nothing
explorer
material
mun
pen
##iot
scot
familiar
commerce
colorado
ruling
patch
##sch
##elf
##eth
alan
majority
separate
karz
msn
anim
##ially
patient
watchdog
size
##pal
shift
bruss
defence
itunes
describe
toll
ally
technologies
entire
ninth
dra
fill
offense
flash
advant
convict
karzai
girl
##oke
##izer
priority
hunt
powell
##onder
brussels
ach
bull
rand
##rate
##cat
##bel
restru
hamid
prisoner
cancer
saddam
unexpect
##site
##cle
##anger
##season
cool
opener
##enez
coc
sand
##ien
##pool
##held
##mn
resolution
steal
handheld
##iation
worm
website
emergency
factory
magaz
founder
##omm
expansion
##ivid
copyright
fee
she
sha
##arta
mars
mind
payment
##going
critical
cos
argent
holy
magazine
gulf
##oles
##enna
wear
spread
##acher
banking
electronics
sudanese
nar
##ique
##fect
chris
andy
flaw
slug
upcoming
quickly
inventory
mis
si
##itute
beach
smith
armed
portable
spring
utah
master
liverpool
mary
indicate
scr
##ously
slam
saudi
crucial
atomic
##adow
plot
blo
antit
idea
greek
##ians
blog
airb
output
supporter
husse
tackle
mel
##do
##ooth
mush
regional
historic
atlantic
diplomat
clinch
fighter
##inh
defin
switch
harm
shiite
sid
##iary
##icult
##ablish
climate
promote
eighth
##nam
##ental
seat
moz
##ology
barry
upset
speculation
denver
jerusal
mutual
jerusalem
pent
chann
spir
prince
marsh
##oney
##fox
firefox
antitrust
gro
##inet
individ
##ampa
handset
summit
explosive
environmental
bes
ep
kev
pra
##rad
inn
##acity
##owe
reportedly
billion
establish
influ
retirement
natural
astronaut
services
channel
edu
##ilar
ank
answ
contain
difficult
##burg
answer
##bre
##rom
deadline
islamabad
coalition
craig
las
nik
##cos
chase
##ierce
identify
donald
wil
##va
##ifinal
associated
mets
democracy
semifinal
affect
tenness
jak
ticker
exist
opec
love
allegedly
kevin
eth
ky
viox
##wh
##ging
partnership
##awk
speech
merck
solid
brief
individual
vioxx
kind
##fielder
##icop
##uting
marine
conserv
info
anticipate
nascar
similar
shuttle
##icopter
cinc
eb
rang
tampa
##jay
forest
elim
transport
helicopter
strengthen
##innati
cincinnati
heating
orbit
medic
charles
hussein
km
rather
##otion
discl
ivory
initi
gunman
tennessee
nl
purs
var
##aur
##lan
##where
##utical
newly
malays
sens
##don
##gar
##board
always
guerr
##ibly
competitor
qualifying
carlos
okl
jakarta
burn
rare
wicket
computing
##iple
scale
prelim
detain
instant
##factor
cabinet
georgia
##usion
##aceutical
reporter
##intend
capacity
newsfactor
media
notre
roman
voting
##point
##gen
enron
radical
social
immediately
eagles
dame
fox
ku
##uce
##onse
##emb
##sson
teammate
colle
holdings
overcome
subst
traditional
maintain
enrichment
advantage
river
tank
##ew
##yad
leban
##ques
intend
loan
manufacturing
airbus
cow
hp
overn
##dd
joe
hamas
combine
experiment
preliminary
fal
penal
rum
##rick
##fi
##uty
increas
##ova
devast
gy
jon
mist
##etary
unbeat
##eman
##izon
nationwide
motion
supercom
rapid
facility
celt
hur
##ledge
spect
que
disaster
##aze
deputy
violate
hardware
grab
games
choice
lad
##ting
##lement
arth
text
collect
remote
indiana
ranking
response
cubs
widely
experience
educ
overnight
ticket
##uate
##ano
spl
amount
networks
salv
ukraine
but
spin
attention
centre
colomb
ballot
indonesian
rever
##ocol
overt
##arraf
mozilla
gear
hon
##esc
##abase
bey
vik
database
strain
novell
cyber
mountain
coca
musharraf
##hap
##box
##olm
militia
feder
wales
silver
pharmaceutical
increasingly
cnn
paper
##ao
##ample
failure
cancel
racing
spyware
pedro
fat
flo
lap
rating
##sure
##ola
trust
situation
bott
##side
##mond
##keep
ster
##oping
contrib
slash
evening
rangers
nintend
oust
tiny
stun
swiss
lawmaker
rescue
dub
era
men
sle
##igr
##irt
quit
seoul
abs
trib
overall
##type
cold
hide
compare
clo
##ogn
franch
walt
##ladesh
bangladesh
subscriber
beyond
nintendo
ts
wife
##iership
inch
##amb
infr
ability
premiership
ebay
brian
gary
unless
quiet
##inez
recomm
##duction
obser
recommend
mr
rick
wonder
##ae
##aire
titan
martinez
neighbor
haiti
qcat
qtype
rub
##jan
rein
leading
infotype
bat
jr
sav
##ned
##tch
##hood
##ourage
##vez
anth
enh
surface
author
drink
berlin
oklah
gh
mine
tent
##ni
chem
governor
officially
abb
wayne
jacques
narrow
ke
##gu
##isation
milan
surpr
overtime
petro
larry
determine
disappointing
oklahoma
luc
##kei
publisher
withdrawal
citiz
##enezuel
nikkei
curt
ride
##edy
##ified
technical
##athon
bomber
cing
howe
venezuel
##ador
else
door
survive
pga
##station
style
marathon
trail
protocol
insurer
hearing
angels
graph
license
bryant
unbeaten
cingular
dun
contest
iraqis
rig
##cia
##bury
spur
plun
pervez
vienna
brother
occup
java
##haps
unf
##ruit
##airo
athletic
dolphins
scotland
jord
zimb
##aver
exporter
perhaps
writer
jewish
penalty
zimbab
##mission
##andon
ensure
saturn
discount
semi
bin
ly
##ourc
perfect
##bean
greens
##augh
achieve
enhance
zimbabwe
aer
##asion
chen
newcast
arr
buff
##ologist
nom
resort
commander
desert
abandon
instru
lines
falluja
tempor
hills
initiative
chile
jersey
franchise
cass
jury
langu
piece
trig
manning
weigh
brew
belg
jordan
fort
pip
tun
##war
anton
trend
attract
warming
killing
giants
overh
violent
succeed
braves
myster
qualifier
combat
couple
destroy
dramatic
eliminate
newcastle
table
##vet
##iro
##well
##atist
leadership
scor
inspect
sharing
associates
robot
cheap
route
philippines
hacker
tos
tap
##tada
##ania
##etts
##rik
offset
assass
steph
labour
aol
lux
sri
three
##apter
##ivity
corner
internal
massach
prepar
cuba
assistant
talib
bench
either
snap
wis
##ius
##usetts
shell
##umn
territ
beck
separatist
infringe
massachusetts
taliban
territory
lion
lank
##world
##icious
exam
behead
allawi
##rawl
communist
possibly
az
##cs
##hard
respect
##place
spirit
trigger
apr
hass
lake
self
altern
boom
scientific
equity
clean
square
legislation
demonstr
hang
matt
##asc
lee
repeat
annan
pret
stretch
revolution
undergo
verizon
ii
pun
wi
##ren
##lier
##ented
construction
quite
phys
regard
ongoing
guid
vijay
restore
apart
theft
dodgers
cerem
aub
ice
mour
##wa
##ede
##abor
filing
surround
columbia
federer
bir
nick
ori
##puter
##za
##igious
winning
recogn
maur
capability
networking
through
integrate
doping
hun
rat
##boy
bright
impress
bonds
language
april
auburn
bee
fellow
gord
##reg
##usive
##ront
##minent
edward
distance
understand
peter
supercomputer
ful
oce
pose
##gic
messaging
multi
symb
identity
piracy
ash
sie
va
confident
letter
beta
kofi
bitter
egyptian
gymn
nic
##sung
##ocate
adam
thomas
throughout
mcl
##tha
blu
bigley
onto
recording
supplier
typh
foundation
homel
gm
nort
task
##die
##dick
nepal
##anda
spons
##oulder
aggress
remember
redsk
##structure
heavyweight
plunge
sponsor
dual
##ps
##iana
usa
##aby
steady
string
guy
everything
bolster
virtual
however
creat
##ez
##itect
##itude
##aste
conclude
lineup
anyone
architect
vulnerability
ceremony
typhoon
cry
##pir
##hen
resist
postseason
email
programme
explain
feed
brazilian
notebook
dial
lind
sab
##pone
##gl
stan
deleg
uns
ali
command
retain
##cons
basis
transfer
turk
criticism
distribute
uncertain
bottom
antonio
ocean
tree
##ali
##leans
##ami
orleans
postpone
editor
brain
squad
samsung
subsidiary
##awks
escape
##qtada
##osh
busy
##quarter
orland
register
mayor
headquarter
institute
respond
orlando
##wis
shipment
weight
additional
peacekeep
sudden
norm
highly
possibility
philip
resignation
bobby
guerrilla
by
fa
fred
mat
wage
##fe
##stain
##room
monetary
##ousing
barcel
fannie
improvement
friendly
sideline
disclose
toshib
uef
stick
infra
everyone
suspension
towards
roddick
alternative
toshiba
uefa
gard
sbc
##pire
##zy
congr
liqu
##lands
##ikely
embar
circuit
##roll
dangerous
unlikely
argentina
dog
hub
hike
mir
##gely
quality
embattle
type
##ritis
laden
gymnast
cart
father
##ein
##fire
annivers
console
holding
freeze
frances
##ipper
clem
potentially
largely
encourage
chemical
greenspan
fen
ign
kim
##ois
##icular
##rys
scene
mining
mae
anything
brokerage
birth
barcelona
infrastructure
anniversary
fash
ol
##gas
##joy
component
extension
##ception
innings
ryan
casino
mixed
mistake
arthritis
education
##etic
lewis
sustain
pers
trick
poise
investigator
automaker
animal
redskins
##eason
martha
preseason
accident
implement
movement
obtain
activist
hewitt
politician
shrine
pipeline
gordon
enjoy
forum
forget
adrian
corruption
andrew
closely
ravens
citizen
bbc
gb
sac
##xim
##icks
schilling
viet
subject
hamm
distribution
cassini
##rig
##ki
##emn
##berg
nether
relative
apparent
bloody
favorite
argue
graphic
vietnam
aide
bert
diam
inqu
stern
shoulder
##iller
meg
swim
buyer
##plane
taxis
kobe
function
##know
surprising
##rysler
ha
pist
rome
##gain
gren
libr
swap
bargain
extrem
twin
affair
complaint
status
hung
kent
lyn
mand
##eb
##orth
select
acad
bridge
stronghold
specie
install
morgan
associate
population
appearance
battery
vacc
ah
gate
housing
##uring
exact
expense
resource
maria
##apping
democrat
landmark
kidnapper
representative
responsible
path
##emp
label
currently
utility
illegally
relationship
turkish
cd
##pass
##icon
unw
##pper
mother
slump
##works
abd
guide
overse
beckham
lanka
##omp
complex
expo
assemb
aside
oppose
competitive
iranian
starter
alive
##oster
brad
syria
mah
comeback
raf
reflect
athlete
merc
mosque
curb
##body
charlott
reverse
dick
lat
##buster
##urch
proceed
##ctic
unpre
margin
evac
cease
successor
feb
blockbuster
astronomer
library
assembly
cult
fierce
mig
##ken
enforce
carib
universal
simple
negotiate
crown
nigerian
village
ankle
steroid
petrole
fit
horse
wrap
##woman
##esis
##ecially
thin
##agon
frust
particular
tourist
entry
favour
origin
navy
du
##nel
##ek
##mon
##bar
##state
acknow
object
privately
eric
vegas
justin
osama
especially
vaccine
sight
##arily
##omo
arena
presence
##ground
caps
nobel
swing
##rell
delivery
steelers
successfully
fashion
petroleum
cbc
esc
gil
holl
##oil
##rator
##fort
##ilton
##acter
##iry
gasol
multiple
shopper
discovery
##slide
caribbean
breat
pion
zar
##sm
##emic
sunni
liby
revive
imm
famous
organisation
frequ
pioneer
lak
tend
wing
##ias
##rival
congo
shan
marin
contact
##ennan
effective
controversy
malaysia
wenger
##part
compens
incident
disrupt
rooney
##eship
volume
magn
collabor
##market
snow
jeanne
acknowledge
jagu
nt
##oen
##aug
church
johan
remark
championships
negotiator
##cedented
maryland
anthony
unprecedented
jaguar
tip
##ata
##rain
repair
highlight
nets
silicon
strategic
conservative
pursue
stephen
hassan
dark
lley
loy
wre
##oum
warm
belt
chechen
spammer
infringement
netherlands
overseas
charlotte
lleyton
ace
gor
most
##lv
##wich
##enko
##atively
##amil
##edia
##umph
##allah
flow
capable
maybe
triple
triumph
handle
violation
illin
convoy
jets
constitution
praise
##escope
mclennan
finger
slo
tire
ven
##of
##cient
##thers
##ears
opin
amaz
intens
austria
showdown
formally
modest
miller
gaming
condemn
spaceship
tropical
telescope
commitment
split
clothing
homeland
diamond
din
fur
map
pf
soph
vast
##alo
##rif
laur
crush
aboard
overs
regulatory
simp
criticize
sentiment
ferg
mostly
opinion
gal
sack
sink
##iate
##rect
##olic
phoen
amster
farm
democrats
regulation
volunt
##mohan
limited
nortel
headquarters
phoenix
amsterdam
gap
kod
nv
tumble
vod
inaug
miner
generate
edwards
ail
gates
##star
stall
suite
recruit
disk
syn
##athan
##awa
refin
meth
divide
innov
##aughter
inquiry
cz
cath
tig
##dom
##abil
margar
##ives
playstation
phelp
consult
pole
gene
religious
roundup
##loyment
willing
daniel
manufacture
thanks
tighten
##ette
fergus
phelps
carter
dump
##cise
execut
##berry
manmohan
##icken
column
restrict
valley
notice
qaida
##ography
responsibility
cooperation
capsule
hamp
##word
##uan
exhib
unemp
seal
interior
accel
consol
revise
golden
employer
motorola
reader
counterpart
immediate
overhaul
gasoline
margaret
cro
rip
rail
sar
excl
print
##endum
grid
orange
buck
assess
colts
starting
modern
hero
restruct
laptop
demonstrate
loyal
py
wim
##kins
##ding
##gment
##inson
##enty
unus
spitzer
adj
cola
breed
institution
sweden
flagship
teenager
bh
kil
rape
##final
##ayer
branch
ado
##active
phill
quarterfinal
##ancy
whole
senator
equal
difference
kenneth
referendum
drag
influence
instrument
restructuring
ta
tay
vital
xbox
##gish
##qawi
reign
##elson
ancient
##ghai
monthly
briton
barely
##cession
invasion
bears
happy
boxing
flee
beslan
shanghai
fate
##icut
##illy
concession
apply
testing
contractor
membership
estate
##pread
arabia
cheer
neck
connecticut
sluggish
medicine
zarqawi
vodaf
ba
eat
erik
hor
jay
sense
##ised
##aka
shape
princ
marri
trap
detect
legend
restaur
mcc
browns
trafford
buffalo
mariners
ferguson
vodafone
restaurant
brawl
dust
comfort
rover
stream
standing
packers
challenger
arsene
pacers
audio
description
telecommunications
##azeera
tribun
illinois
dict
fem
sized
##oop
##te
##lor
##horn
##artoum
##ishing
improp
creation
##ukee
muslims
khartoum
##sche
pistons
bury
ferr
ott
porn
soci
##rison
deut
serb
true
peak
backup
reality
harry
shortage
memor
devil
discussion
someone
lebanon
cowboy
tigers
bounce
erupt
rug
sap
tape
##rone
##giving
##espread
##itarian
##reme
##oto
alb
alert
##ache
##inton
retreat
##azer
charley
ipo
widen
widespread
fleet
munich
kmart
siege
adobe
bind
##ello
scan
##pton
consort
victor
switzer
allen
##fully
merge
duty
engineering
unexpected
unemployment
bund
cav
dur
fortun
gart
hail
##fol
##road
chad
##iab
disruption
milwa
##phis
economist
lob
citigr
definition
luxury
consortium
milwaukee
citigroup
gall
gift
lif
mate
rw
sven
##vin
##atically
##omen
##amo
##under
cloud
##ruary
runner
attacker
error
exploit
original
celtic
february
cairo
dh
kl
##eck
##utor
plenty
##ocket
after
lineback
memphis
replacement
mortar
henry
##lvania
nca
tail
##iber
##life
##ua
##bour
##jo
##arant
clar
grad
disarm
setback
##print
##lins
patrick
cellular
easily
sexual
necess
dominant
liquid
simply
deutsche
switzerland
bon
mit
pin
sears
xinh
##fall
exit
complet
##assi
palace
defender
unexpectedly
czech
gartner
linebacker
lig
ox
##rative
##cott
##person
##icient
unh
atm
##anged
ell
visitor
mosul
injured
factor
republicans
lockout
birdie
licens
honor
embattled
exactly
improper
ottawa
ec
sr
tension
##alore
adult
minor
desper
##avez
soy
beginning
addition
aviation
heavily
article
temper
female
gad
jul
jazeera
ros
ross
rough
rental
exer
##antec
dealer
formal
actually
direction
divid
##ikh
slowdown
cycl
symantec
bangalore
northeastern
toyota
colombia
pfizer
thanksgiving
ncaa
eve
pump
sor
tender
##met
react
chir
chavez
leh
banker
##shire
protester
indians
landslide
casual
espn
swedish
contribute
kodak
bed
dc
##pa
##py
##feld
##rah
##essor
compat
persu
moder
minority
##enson
##erald
pool
suppose
eliot
solve
employment
listen
foods
ultim
pentagon
floor
beef
da
ga
sort
##stein
marc
prescri
busch
##ernand
abduct
##atorial
guine
instal
argument
deployment
scram
##whel
clemens
exercise
bor
cbs
hd
lure
mall
##burn
expos
arctic
tob
crm
infect
confront
headline
adviser
##ourne
devices
bronze
aggressive
dividend
baby
sample
ziff
##tar
##tor
##sis
##anmar
##the
sean
##abe
peru
coord
intention
computerworld
overwhel
submit
shooting
myanmar
santa
hugo
momentum
pretty
fenway
escal
guinea
fel
mouse
sain
##ka
##icion
##iting
##cher
destruction
##ellor
perman
finding
domain
blackberry
calm
occur
optimistic
wreck
persuade
sach
##bourne
cha
##imes
plague
trump
agassi
sett
regain
sharap
item
portfol
##osphere
celeb
restructure
harmony
accelerate
portfolio
krem
nap
tout
##can
##bo
chanc
alone
##abit
serena
moham
endanger
musab
engage
outfielder
schum
els
healthy
tyco
sometimes
bloom
observer
preparation
compensation
chirac
celebration
kremlin
dw
living
rou
vision
##eet
##vard
##lig
##western
##oral
##utious
anger
##ivo
diss
emotion
cautious
baseman
location
billionaire
venezuela
examine
exhibition
sharapova
nag
ps
##away
##mc
##anson
##stal
convert
##iable
##assador
coff
phase
conspir
genesis
holder
testify
caution
digit
suspicion
weaken
freed
cruise
palmone
ambassador
melbourne
tentative
fare
jays
ren
##mary
##kar
##wait
##init
##izard
##ological
wholes
northwest
voip
malicious
disappear
determin
kuwait
ricky
##ourcing
peacekeeper
congressional
lehman
foss
hell
native
odd
pocket
##lection
shel
printer
scam
steam
metal
transaction
character
outsourcing
multim
balance
weakness
rodrig
diplomatic
temporary
fully
resistance
uncertainty
enforcement
fro
pact
##sen
##lon
##dro
##irk
shadow
indict
endorse
##ody
rebu
midfielder
angry
invit
supermarket
eventually
laboratory
convince
ramallah
audience
randy
cosm
grenade
spaceshipone
schumacher
##ounter
##iev
##achi
muse
coaching
financing
settler
conspiracy
gig
lun
pad
wish
##po
##holm
##mal
##rey
##olt
##astic
exceed
regime
federation
barb
guarant
equatorial
administrator
losing
wildlife
henman
##ographic
crackdown
scottish
subsidy
pennsy
##guard
lions
dyn
horn
mph
rot
wine
##tors
##roc
reward
chapter
##unami
##iever
##atcher
infow
policeman
insurgency
hamilton
speedway
preview
ernie
jama
directly
christian
biot
tsunami
assassination
freedom
batt
hond
kaz
rid
tall
prominent
expensive
netscape
spokeswoman
parliamentary
seriously
kennedy
jacksonville
##inho
various
hurdle
vikings
fossil
infoworld
craft
yield
##cd
##eless
prol
clinton
##ipse
manh
scrap
mini
players
mississ
severe
humanitarian
availability
sweeping
garden
chancellor
len
punch
uph
wizard
##rill
##ered
##aron
##acco
##enda
reds
##ibur
israelis
##onym
funding
yankee
kyoto
quietly
cheney
wiscons
punish
normal
libya
licensing
pennsylvania
wisconsin
bot
ecl
ll
lag
rack
rose
##nic
##stan
##ited
##oming
leak
gov
marlins
reput
brace
prec
inspire
eli
load
chechn
gamb
pirate
hallibur
ambition
transportation
rafael
society
guarantee
halliburton
bos
hav
waste
##rac
##lington
##stop
reduction
##owa
##akh
marion
everton
globe
patrol
species
##iffe
hamstr
analysis
sprinter
robust
docomo
certainly
optimism
particularly
tobacco
eclipse
chechnya
hamstring
ded
##colm
##ha
##mad
##bon
##lead
unix
##antas
##actic
bug
outcome
##minate
##afe
##backs
versus
transform
apolog
idg
urban
malcolm
alleged
envoy
hugh
garcia
ravage
impressive
lynch
mississipp
dna
jar
mumb
tag
##gomer
##enc
##led
##edge
suz
seah
arbit
height
participate
longhorn
smile
hander
emission
foreigner
mcn
boycott
raptors
encounter
madison
colleague
crystal
hollinger
rugby
mississippi
dim
fid
flex
icc
ov
ramp
##yang
##uct
compound
alt
##antan
indies
tru
##ogue
##ivor
coverage
prior
intense
##azz
provision
custom
##cliffe
montgomer
independence
rapidly
suzuk
birm
rh
##gling
##onate
##tery
##oof
weekly
submar
glazer
##boro
kenya
substant
mystery
maures
atmosphere
honda
seahawks
birmingham
ak
gross
hague
ian
##eel
##kok
##wall
##worth
##uer
##uable
##ged
##atile
##rocess
##ila
shawn
enemy
bru
depend
halo
chipmaker
##ovo
ballmer
freshman
bangkok
##aska
electricity
overturn
evacuate
fortune
casualty
museum
mumbai
mauresmo
cert
##fare
##mand
##due
##itate
##omy
##olk
expire
arrival
stockholm
relatively
belong
farmer
household
invite
##scar
##ospace
negative
junk
involvement
ramad
closing
complain
survivor
##uffle
liberal
solaris
jonathan
sleep
belgium
intensify
unusual
taylor
prescription
scramble
ds
iyad
iowa
lp
toss
##sa
##iya
##lock
##ilt
interf
##ongyang
correct
atop
greet
imag
discip
##ometer
specialist
integration
stunning
tune
suddenly
ignore
diamondbacks
pyongyang
reputation
submarine
length
rf
taking
##rass
##ui
##estyle
shrug
unable
##emens
clock
serge
ata
poison
elite
titans
advis
advocate
publicly
metre
valuable
##ipping
juan
louisiana
salary
distributor
alexander
grip
significantly
embarrass
persist
bone
bamb
crop
damp
hint
kaza
lcd
mas
yug
##rant
##entive
##emble
incentive
agenda
wealth
roar
evolution
scheme
buyout
electoral
metro
processing
doug
undis
siemens
dubai
orioles
method
kazaa
dress
eis
kel
lend
nam
viv
##say
##hill
##yton
##gate
##elie
sting
stuff
comprom
agric
bruce
branson
satis
maver
terry
##eneg
hopeful
explore
sender
mete
basic
##bridge
goran
eriksson
gadget
eisner
hop
kurt
roster
##lus
##lusion
##inder
##otape
##eller
microp
videotape
organize
machines
directory
pentium
cornerback
architecture
exclusive
aaron
dawn
kath
tab
forge
##uez
permission
peyton
##ivir
accus
poland
sweet
brett
extin
##otten
hammer
landing
cellphone
cambod
magic
inspector
favourite
lakers
ferrari
bure
daughter
mick
vari
##oist
##rical
##water
##ugh
##organ
##ala
ther
unch
alital
albert
finland
##central
workforce
cape
relay
reliever
upon
antivir
troy
twins
graeme
##eva
southeastern
devastate
devastating
aerospace
scoring
necessary
moderate
agricult
alitalia
ax
dave
et
fault
gib
hip
khan
ske
##anim
##rob
##isive
##echn
##otive
thatcher
bloc
define
amend
guantan
deport
authent
portland
loom
intellect
promotion
idc
junior
rockets
reading
murdo
mahm
catholic
adjust
antivirus
guantanamo
murdoch
bt
gay
iron
lord
lender
wta
##yl
leap
unp
usually
##ished
recon
warplane
embr
greg
concede
michel
appliance
plea
pollution
##struct
maccentral
spotlight
milestone
kingdom
jointly
##standing
collection
observ
hunter
inaugural
escalate
compromise
ug
women
##ram
##bast
stamp
##ilat
##thr
pric
##iago
alco
bele
##bledon
buzz
muscle
outline
raw
upbeat
rivalry
behav
privacy
helens
ult
ethnic
lebanese
viktor
wimbledon
rodriguez
bosn
##rocessor
intellectual
embrace
eld
eager
mud
math
nc
ral
rash
##ray
##uz
##ono
##repr
steep
contender
blade
##ultane
trim
detonate
campus
##ventus
simultane
owen
tommy
juventus
silv
golfer
msft
##aguered
celtics
float
aziz
dictator
beleaguered
borrow
dia
linger
pour
##rand
##ero
##anium
##enge
rely
stru
##rav
##opol
usual
incor
##agen
##iction
whale
revamp
selling
jobless
restate
undermine
seeded
theory
virtually
broncos
vulnerable
button
belgian
mysterious
symbol
lindsay
lobby
fame
kiev
ntt
rent
##oa
##night
##viet
##wave
##enport
##utch
##osed
thai
##emark
##ifle
amelie
helped
swift
imac
tradition
davenport
radcliffe
twist
departure
downt
downgrade
skin
##attan
treaty
nature
hydro
santiago
derek
bullet
sensitive
rumor
abbas
abbey
llc
microprocessor
##echnology
##through
hij
icon
jen
##aware
##cend
##stre
stir
##chenko
##verty
shatter
shoe
example
maoist
percentage
assign
poverty
norway
stress
soviet
abroad
hitter
missing
itanium
breakthrough
matchup
harvard
volatile
thought
identification
automotive
nato
samarra
crowded
ukrainian
##omberg
bloomberg
##break
detainee
lycos
##aliers
gateway
cavaliers
tycoon
wholesale
meteor
hijack
cate
mb
rup
##eness
##urity
congl
unanim
advice
frame
attach
steven
southwest
technique
longtime
emc
propel
active
portug
slowly
popularity
berth
industries
sirius
philippine
athletics
lucrative
marriage
rebuild
conglomer
beng
none
pu
td
tivo
vanc
##vic
##ving
##als
##ouver
##acular
##charge
grace
ambit
outp
##iverse
extrad
specific
realnet
elsewhere
delegation
delegate
tribunal
permanent
lunar
##mandu
categ
vancouver
denn
fest
md
##iy
stone
##ampton
clue
offsh
moqtada
grade
phishing
carmaker
steer
genoc
depot
electrical
muqtada
mids
harr
pitching
paula
jeremy
artist
##iliate
clinical
extremist
conglomerate
ambitious
realnetworks
daim
fool
pave
paint
psy
##rum
##rising
##eve
##furt
##mes
##mail
##stor
##iterate
thor
sequ
forth
##endi
##irez
indef
ort
uprising
bombard
organizer
designer
owens
skipper
##umbent
effectively
captor
ramirez
derail
charlie
bernie
shrink
saving
cowboys
napster
rupert
daimler
psych
ble
his
wolf
##sfeld
##power
reaction
##unction
##uls
incumbent
##endar
##ode
shortly
purport
creditor
cuban
frankfurt
neighbour
##known
experimental
rumsfeld
spectacular
physical
recognize
sacr
latin
amazon
manhattan
##stream
gaz
haz
pile
totten
xm
##aud
##urance
unique
unknown
##iano
##illion
timber
##quille
businessman
##coni
colon
portal
##neapolis
##amento
##resp
##icipation
walker
burst
disappointment
surrender
shaquille
bloomfield
structure
hispan
sacramento
tottenham
lash
nug
pav
rice
##napping
##eed
##men
##itas
##acom
##olas
##sequ
##iform
preserve
minneapolis
commod
buoy
recorder
wheel
##phony
##ierre
breach
visa
owe
islamist
kidnapping
danny
panthers
traveler
audit
demonst
conservation
cartel
magnitude
fidel
genocide
ortiz
bold
luk
riot
sag
tort
tower
wrest
##ih
##card
##lav
##erous
reass
##idation
##ira
conrad
shed
##eeze
unrest
plug
cluster
element
syrian
polish
assure
genetic
nearby
buying
extreme
eddie
merrill
damasc
afford
shutout
calendar
husband
exploration
conviction
slugger
##ources
array
benchmark
multimedia
montgomerie
accusation
demonstration
damascus
avert
bog
baker
diet
ess
fake
fab
omar
pierce
yellow
##pose
##leash
##ilder
##chrysler
proof
conway
shipping
unleash
highway
syrac
root
regist
intr
delaware
smash
embry
typ
##weg
greenhouse
louisville
verge
andreas
luis
dominance
liberty
shauk
absence
dhaka
completely
##rahim
coffee
variety
daimlerchrysler
syracuse
got
hir
##par
##pur
##ds
##icial
##isse
chant
click
resources
##udh
indo
adapter
scar
beer
warri
norweg
outfit
smooth
oversh
trojan
custody
ibrahim
improved
gamer
combination
animation
temporarily
philips
uphold
kathmandu
##ilateral
shaukat
lsu
langer
nf
rays
sne
##vis
##ms
##gree
##arch
ink
##ela
shak
uncover
spike
alter
serie
southampton
geneva
##ullah
continent
aviv
##web
faction
jamal
squeeze
advertise
eagle
luke
grocer
briefly
##igrant
neighborhood
occupy
gymnastics
originally
norwegian
overshadow
hart
jp
lam
mol
rim
zur
##gs
reiterate
##ilo
chrysler
##raib
uncon
austin
payroll
telephony
costly
trademark
safin
locker
##ski
broadcaster
illness
columbus
mislead
pursuit
##donald
substance
ghraib
arrange
academic
phillies
temperature
hughes
suzuki
rfid
pricing
divers
fold
haul
mood
nan
please
rbi
##vy
##ja
##itary
##reh
##isp
##chet
##otic
plate
todd
##eyer
cargo
defy
slay
paraly
seller
emph
ownership
erp
premium
entrepr
anderson
berlus
circle
mexican
talent
ronald
recommendation
execute
jamaica
lenovo
commodity
berlusconi
dot
ich
jerry
nj
nash
ot
rut
##mel
##ita
##ets
anonym
##ende
##ips
ark
prefer
##iously
cutting
elena
subur
eastman
shortstop
blackburn
robinson
##onaut
captive
unfair
apartment
orient
dialogue
stanley
matth
culture
xinhua
ovitz
torture
zurich
bash
di
gang
rena
##iard
##ces
##gio
##ouri
##ompl
thwart
lean
##ortion
accompl
topple
abrupt
swear
listing
modify
urgent
##uja
importance
cooper
venezuelan
mourinho
mahmoud
hiring
arist
fernand
kyle
sans
##ners
##vp
##ios
##oning
##angle
##icator
excess
uniform
spare
##apt
enth
usc
alab
alarm
trace
joy
slum
profitable
belar
interesting
veritas
affiliate
attendant
ankara
textile
mandate
hampshire
desperate
category
ay
ayad
hend
ted
vince
yudh
##pile
straw
##acre
comcast
##aks
proced
theat
theme
leon
##ardy
marat
finale
maine
eval
ontar
##azi
paypal
##eneur
wired
standoff
##oyono
pause
drama
purpose
trainer
rams
filmmaker
layer
silvio
yudhoyono
ontario
cul
dash
haw
nad
now
pill
wa
##fr
##bow
##onz
##olves
##idency
##utter
degree
##occo
##udge
teach
corresp
lah
ord
descend
medi
firewall
speaker
specification
merch
equip
healthday
treo
optical
artest
drew
santander
deeply
legislative
lackl
##ipei
guidance
academy
taipei
vivendi
offshore
entrepreneur
correspond
mvp
qantas
##ci
##gie
##lev
##isan
##olar
cham
charter
plum
interface
reserv
##iled
atp
primary
netfl
boat
slap
smoke
chiefs
susilo
massacre
glass
favre
counterfe
gmail
oversee
assessment
bureau
alabama
bail
gut
melt
nairo
pino
roma
upper
##pen
##ws
##encia
##stri
##igar
cheat
thunder
monopol
interception
presidency
beaut
professor
strange
surf
surpass
barrier
realize
tyler
pleas
panama
volk
catcher
rescuer
paink
malaysian
queen
assassinate
prepared
freddie
bertrand
venus
pornography
##iability
kazakh
bambang
behavior
elder
nairobi
pinochet
craw
foe
kirk
nerv
rib
sail
##bell
##ql
stiff
##idia
##rim
chicken
convers
##oslav
##ulent
manny
scare
laz
crunch
roeb
amate
##ucky
efficient
shark
strongly
midd
portsm
##ika
mcdonald
locate
pullout
trem
##swagen
teenage
cocaine
keith
hubble
frequency
principle
comfortable
nugget
matthew
netflix
volkswagen
roebuck
portsmouth
bust
hedge
ie
jint
rio
tactic
##bron
dean
anx
selection
interactive
arlington
disgr
lav
assume
deliber
knicks
johnny
tribal
programming
valencia
clearly
approxim
skill
##icited
funeral
curse
knockout
unders
contribution
faith
fingerprint
nvidia
roughly
wreckage
biotechnology
arbitration
imagine
nfc
aristide
enthus
approximately
bm
best
bian
cigar
lump
padr
soun
wn
##laim
##fast
##itable
neither
chat
##open
##osite
shirt
ans
##agger
##keley
deserve
killer
abc
##airn
##atham
redmond
pcs
obs
##ucks
journey
berkeley
broadcasting
grizz
keny
guidant
mourning
mercury
innovation
coordin
overwhelming
chaos
determined
ralph
bengals
harrington
ichiro
kazakhstan
amateur
nuggets
padres
bp
fade
fcc
kat
kur
lane
pende
section
##ten
##hal
reorgan
ing
##oli
##olicited
spurs
alaska
##antle
indication
quota
milose
pointer
implant
terrell
##cont
outbreak
##airy
schwar
revenge
emir
bills
empire
valent
turmo
volc
salt
islands
calc
mutu
rushing
occupation
nomin
unsolicited
proceeding
bundle
soyuz
yugoslav
unchanged
procedure
painkiller
jintao
souness
schwarz
turmoil
kan
kris
pope
roof
wipe
##case
##more
##uous
##gun
##jave
stable
##urate
conver
##osaur
lebron
sher
##asty
resur
mojave
brun
minim
disable
useful
militiam
smug
finalize
relieve
viacom
##mind
subpo
imminent
singer
##header
##comm
basque
popul
invade
harris
simpl
bayern
suggestion
cycle
checkpoint
deterior
jeffrey
catal
referee
salvation
creator
abdullah
remarkable
instruments
dynam
batting
agriculture
incorpor
downtown
essential
renault
milosevic
volcano
bah
bcs
dent
dairy
fbi
folk
hud
lor
mak
mention
rage
sick
##orp
reopen
##etically
##andan
##imony
shy
##eeves
comply
universe
##umi
alum
arn
teacher
manned
##ograp
parad
outstanding
abuja
conclusion
midnight
mainly
doubleheader
gunfire
snatch
earnhard
survival
##bodan
gathering
smartphone
subscription
ruud
mastermind
salvage
embargo
swimming
miguel
slobodan
memorial
advisory
simultaneously
subpoena
##ographer
earnhardt
ho
hover
habit
jur
vie
##nish
##atives
##ayan
##itsch
stability
##irut
##essel
shelf
except
compreh
##pple
expose
gray
beirut
aires
defect
stockpile
asyl
smok
testimony
missouri
turnover
knowledge
cement
##closed
wright
doom
secretly
mainstream
interested
australians
##iki
##brough
shootout
purdue
scream
spaniard
circulation
raiders
bolton
romania
symbian
stanford
cycling
router
hellip
cambodia
belarus
asylum
aa
cafe
dale
ecc
ri
tale
villa
yush
zook
##aus
##lies
##fri
##wolves
##gg
##bank
##orate
##esco
compar
unde
prayer
##antly
manip
##ishi
blind
boot
generic
sporting
broken
midway
actor
radar
portion
augusto
publishing
verd
sao
bernard
sandwich
sheikh
argentine
innoc
influential
inspection
ratify
affairs
timberwolves
grizzlies
bc
fuj
honey
kost
moss
num
vin
wat
##sub
##prom
##week
##orious
##ito
reel
##etooth
##ecurity
##igation
##che
unse
marry
manuel
##izz
airplane
consist
impl
imposs
##ought
chargers
bali
prosecution
auditor
false
falcons
fatal
recognition
bluetooth
birthday
restriction
consolidate
undisclosed
unanimously
crawford
yushchenko
aj
dup
hem
lone
nist
oreg
pont
sut
svet
yes
##lana
##jet
##enst
##step
stack
##asia
proper
##osure
unt
spill
sprain
sebast
permit
##quer
##izumi
##manned
crater
backing
mild
maxim
topic
signing
reliance
elig
campbell
##lesbrough
fundament
##ovan
##brid
tyrone
turf
activate
techweb
skip
photograph
automatic
##obile
municip
laser
reinforce
maurice
rwanda
mitsub
shelter
hazard
accomplish
lackluster
middlesbrough
wnba
oregon
mitsubishi
aston
ech
gator
lunch
mam
miser
oscar
sou
tone
ward
##zone
##elro
##unk
concent
plastic
##ema
segment
offseason
tox
cole
fract
planning
eleph
nobody
formerly
scholar
delight
##ichiro
##press
bidding
empty
##oya
rockies
concerned
successive
glitch
airliner
anywhere
koizumi
alexand
bullpen
surprisingly
##initely
mavericks
gibbs
svetlana
elephant
banc
dock
gat
herald
meyer
pd
##care
##win
##eris
concept
shower
##ulkar
##umper
##illes
incoming
##abo
clara
agg
manila
corey
decisive
priest
partial
terminate
outgoing
lowe
incred
concert
holmes
broaden
questionable
peters
blockade
##borough
representatives
thrash
temple
dolphin
strained
breathe
collaboration
emotional
extinction
indefinitely
monopoly
nominee
militiaman
eccle
impossible
nistelro
nistelrooy
dry
fis
hug
jenn
mg
mec
tum
um
woe
##gol
##erb
##aration
##stra
stal
##uts
ance
##anted
sole
abid
follower
legit
remainder
hardly
visual
peaceful
personnel
casey
drought
mci
paulo
erase
##armed
##ternal
entr
robb
junichiro
theo
franklin
haitian
dramatically
wilson
##while
rigging
brewer
brewers
hunger
nicolas
extremely
tendulkar
johannes
album
rotation
interfax
satisf
skept
correspondent
chamber
nervous
emirates
ecclestone
dubl
ditch
eta
fend
foul
jeeves
von
wto
youth
##source
##core
##mont
##wise
##stad
thier
##ffield
##agar
gover
brush
conte
regulate
safely
seemingly
collins
freestyle
prediction
pirates
dismantle
requirement
appointment
sheffield
pharmaceuticals
lyon
chilean
tunnel
ahmed
frustration
breath
sorenst
apologize
kelly
coordinator
comprehensive
sorenstam
aware
cough
dance
gest
hook
kual
les
nbc
oval
rss
sin
wade
##no
##mare
##wr
##arely
##oria
##enos
##iton
##ises
##iling
##aco
##akar
proc
lex
qual
##ellation
playing
bucc
slim
getting
asb
advise
chipset
deadlock
mainland
willingham
obv
auton
bowler
multip
fifa
alongside
scrut
tribute
fulham
tailback
dennis
lumpur
ansari
arnold
thierry
kuala
buccane
gona
han
ka
lover
male
ore
rom
##pro
##kon
##bl
##inum
##sted
##iture
inex
##eli
##estos
##ulator
unmanned
anwar
quake
serif
brill
displace
##mann
buenos
carbon
isol
nightmare
norod
novel
fedex
##eath
##therford
trag
depress
handed
powerhouse
detention
imam
possession
charity
arial
helvet
derby
extraord
liberation
rutherford
unwanted
volunteer
execution
rwandan
ultimately
marcus
wizards
havana
lpga
gazprom
##frame
sutton
abidjan
asbestos
buccaneers
helvetica
bump
diver
homet
kum
lith
wrist
##lie
##hist
##walk
##ouch
##rec
##rog
stumble
##iri
thumb
spell
##iang
suisse
goalk
heel
endure
desire
northwestern
bargh
##eeper
##enne
##heim
##mination
pitc
torr
screens
bett
hype
hybrid
initially
pti
hunting
environmentalist
tanker
overtake
rubber
peacekeeping
collaborate
klitsch
srin
gambling
authentication
fracture
governing
gesture
norodom
klitschko
ft
furn
fumble
pas
pig
ria
rust
sister
##rence
##lord
##gary
##enter
stoke
##igley
shui
external
##ftime
##ourg
##ifically
##iveness
bea
contend
highbury
outlet
##eated
opera
halftime
breast
mobil
productivity
antar
drugmaker
goldman
##rett
fields
clubhouse
underway
ballistic
volley
introduction
convinc
calgary
donovan
statistic
palmsource
ambush
villager
##embourg
collective
luxembourg
jaguars
oversight
##abilize
dampen
shaky
cigarette
undef
johannesburg
qualcomm
tragedy
dir
hair
jockey
ming
mouth
other
pda
rivers
som
venue
##vo
##link
##bro
##around
##orb
##rov
nev
consequ
##osa
shore
pride
##ardo
cloning
resh
##ifax
mode
brink
contention
##nington
max
colo
##atories
austrian
guest
hitachi
depth
handful
##ivalent
continental
password
equivalent
discri
darren
hotsp
glory
messenger
##unta
links
laboratories
cambridge
coastal
collision
automobile
feeling
sexually
racist
griff
raymond
penins
pennington
colombian
authorize
achievement
kentucky
constitutional
hamper
sachin
dissident
invitational
substantial
doughn
forthcoming
pitcairn
srinagar
dal
ic
nose
rattle
rural
tamil
yang
##nell
##tz
##born
##inid
##ures
##urry
##osen
##osis
exile
unite
spa
ala
firing
intervention
moore
brady
##ishop
sco
disorder
reporting
planned
dece
bode
working
intent
genetically
reluct
halifax
##afee
##axy
restive
restart
keyboard
harsh
obst
##limp
mcgr
graham
##kett
sugar
##media
##strong
residential
kuz
salvador
##regular
nepalese
aggressively
duke
ericsson
galaxy
legendary
oxy
rossi
compatible
saints
heighten
underscore
numerous
otherwise
bite
hate
jb
lumber
vig
wang
##math
##ouk
inmate
##ura
chronic
shane
compact
##umption
superson
opter
truce
##itez
covet
##ensus
gener
countrys
barrage
brom
brothers
armstrong
avenue
halfway
histor
simon
##itting
grave
bayer
banner
silence
township
assistance
declaration
grim
benitez
exclude
jimmy
thomson
conventional
bernhard
logic
spectator
spectrum
beheading
ellison
sachs
nagpur
##encing
mickelson
ugly
ancestor
dublin
hometown
goalkeeper
undefeated
fielder
foster
kit
latham
mask
nice
oss
qwest
##late
##onic
##rial
changed
shield
unident
##abi
marwan
indy
brent
timing
annika
warlord
assert
surfer
paramil
guess
pattern
turnaround
specifically
##sova
porto
mcafee
likud
loud
peterson
aids
irregular
photographer
frontier
closure
telstra
##netsova
robotic
hungarian
installation
ceasefire
croat
bundes
truth
theater
hawai
verdict
gonaives
extraordinary
peninsula
obstacle
kuznetsova
opteron
unidentified
paramilitary
cnet
dose
giam
josh
mound
pix
tick
##ailed
##din
##isa
##uration
##ried
##otage
thick
##istle
spate
enl
##ineon
##ropri
phen
orb
prest
regret
mayer
infineon
outage
##azir
relent
wells
brook
upst
overl
armor
passion
generally
##claim
##news
badly
glas
robin
leftist
oslo
apparel
cheese
joseph
deepen
##lette
cooperate
bryan
adoption
variant
cybers
spurrier
sabotage
frustr
bhp
aftermath
##enegger
diagn
evaluate
schwarzenegger
##friend
fundamental
fischer
screensaver
consequence
cook
fence
hawks
jazz
luck
mi
nord
nelson
ric
##tv
##eu
##iency
##pers
##wat
##bu
##incial
##alom
##aya
inev
##isman
stub
##eca
##amin
##allist
god
arroy
##ifer
##iful
flush
marketplace
medallist
##odox
provincial
handling
postal
grey
shares
imf
strap
transition
battleground
underground
wallet
outsk
pete
eurozone
criticise
layoff
##isticated
occasion
castro
charlton
dodge
javier
entirely
spinner
enhancement
adams
creative
bypass
kenteris
slov
dinosaur
sophisticated
innovative
columnist
bonus
ligament
invitation
bottle
persistent
ultra
nashville
toxic
vonage
giambi
bend
bout
diox
hs
kos
ml
nut
of
wool
yao
##sel
##rard
##ician
##itage
reh
revel
##istor
sergio
advent
##ollah
laugh
warrant
boast
imper
imprison
confusion
operative
lawrence
prototype
anticipation
putt
##club
starb
mainten
watcher
walter
medalist
glac
memo
projection
meanwhile
celebre
burden
rogers
fled
beneath
vacation
ruin
fisher
butt
overture
##abyte
congrat
bargaining
hornets
mcnair
ramadi
embarrassing
thorough
warrior
advertisement
fernando
bmw
simplify
jennifer
outskirt
maintenance
ape
hay
kell
suse
tally
##mi
##gc
##icated
stark
##igration
exception
quant
forb
acrob
arts
winless
brut
grass
annually
orth
assurance
expected
strict
southwestern
demol
showing
swarm
calling
barcl
relax
canaver
gerhard
midst
transistor
copper
pacer
viewer
routine
bellw
royals
motorsport
definitive
functionality
gallon
##liga
discipline
paralymp
elderly
kenyan
deteriorate
incorporate
municipal
kumar
nevada
bundesliga
arroyo
slovak
starbucks
canaveral
cin
duel
egg
foil
gop
hawk
kraft
lloy
omn
pub
sed
tass
##vens
##iac
##wyn
##di
##itsu
##oub
##rot
##uri
##thor
##oper
##opic
leis
lease
alban
alien
##anton
beam
meat
colony
soil
insider
signature
reminder
continu
rebell
eds
##indle
gerrard
billiton
mainframe
rocky
jeop
designate
tourism
toolbar
meaning
drift
driving
brands
karachi
circulate
santana
celebrity
dreamworks
romanian
rivera
narrowly
dunhill
implementation
hungary
evacuation
immigration
beltran
kilometer
hydrogen
extradition
hispano
##contin
alexandria
mechan
coughlin
##elihood
glacier
celebrex
bellwether
burt
cia
fulf
fruit
hob
jpe
lance
nerve
psp
tan
ware
##rino
##bec
##encer
##sters
inject
compile
unity
seven
##abb
perth
recre
atroc
rovers
workstation
config
showcase
schw
swell
swapping
courtroom
elbow
bidder
##rete
##oven
healthcare
obsc
mcg
glenn
suspicious
denounce
frag
roadside
automate
kings
throne
##ska
skype
sensor
honour
overheat
immigrant
tired
vitali
durable
amendment
sequel
emphas
aluminum
oxygen
bilateral
gem
gangu
jenson
liability
sina
tee
##rack
##rera
##col
##cell
##log
##front
##zer
##itation
##amy
##chi
##una
##esty
spawn
plain
worsen
##agne
cla
adela
scri
nightclub
europeans
##iesel
infilt
parmal
barrich
knight
propri
wrigley
mills
lesson
##server
##ometre
archae
budd
lucent
sheet
mastercard
spiral
demonstrator
siebel
creature
frequent
consultant
breeder
liga
confrontation
barbad
festival
grocery
valentino
brilliant
osset
cybersecurity
leisure
ganguly
sinai
adelaide
parmalat
barrichello
ase
bou
biz
eserver
fier
glimp
jab
rud
sg
sel
tas
vog
##ras
##yg
##kin
##dp
##ani
stap
stabilize
##char
marvel
peps
cox
suns
airwave
maath
##shock
strand
medication
colgate
outright
upward
##heed
jobs
concrete
goldwyn
##plant
promising
underline
locust
superb
embed
astra
damon
multib
gamble
polling
justify
artific
arabic
automatically
pharmacy
weary
marshall
epic
disclosure
splash
miracle
megaw
objection
refinery
consolidation
felix
disciplin
borrowing
counterfeit
fujitsu
volleyball
fledgling
acrobat
jpeg
barbados
glimpse
maathai
brist
hi
jaw
mull
mbe
sas
tat
##sbury
##eon
##lift
##omore
##uted
conoc
thaks
##ista
exec
compan
spoil
spencer
##ooter
clutch
mariano
repeal
##ivan
wedding
appet
##achute
heisman
defiant
partly
particip
partners
slate
slice
maid
evil
pod
parachute
whistle
barn
##prus
itar
basra
transplant
liter
judgment
downward
denial
defendant
balco
ski
cyprus
outlaw
kickoff
homest
excuse
exciting
excited
naval
penny
monitoring
bronx
bulls
definit
difficulty
foxboro
silverstone
clothe
gilbert
modestly
sophomore
ultimate
mohammad
dedicate
ramadan
framework
lukoil
hendrick
kurd
innocent
relentless
atrocity
schwab
proprietary
megawati
thaksin
billy
dish
gur
ioc
krist
kreme
nazi
pest
sd
saint
taste
ucl
wet
##sky
##pson
##match
##kom
##gue
##gence
##oro
##iciency
reun
##eto
##ols
##aki
proclaim
##utt
prin
anil
##emen
incomp
resemble
tea
mole
brid
adapt
scour
contrad
heal
##quate
fren
##avi
builder
backer
schro
detailed
costa
belief
passing
immun
legacy
motiv
superstar
critically
hospitality
crossing
unlike
bandw
medicare
foxborough
jordanian
fortify
revolutionary
furious
wealthy
axe
alcoa
##isphere
ordinary
plummet
observe
krispy
##stadt
##euver
vogts
astrazen
multibillion
mbeki
participant
bats
cay
cree
diesel
kal
lady
liable
misc
nike
pink
rans
tense
wol
##bird
##alia
##rode
reaff
rejo
stance
##eder
dement
seville
##ending
clark
intercept
interstate
scatter
governance
airstri
##group
afc
whit
remind
palmer
upro
footage
passport
consumption
morris
everywhere
landscape
televise
filter
forecaster
petition
##cci
turb
jeter
brandon
flooding
fiber
scratch
blogger
epid
rubens
##uanet
kilometre
aftershock
xinhuanet
soybean
lengthy
observatory
alcoh
portugal
bombardier
registration
typical
rutan
arkansas
abruptly
reorganization
smoking
hemisphere
sebastien
echo
overlook
orthodox
fragile
appetite
ucla
princess
batsman
reaffirm
aster
aung
fo
lately
making
piv
ran
rifle
##ei
##iop
##copic
##pin
##pad
##long
##ji
##rease
##isky
stu
stifle
##acas
##ecessor
##veill
##atever
prohib
unau
worried
alber
##agree
##uder
indicator
tracy
##iley
blank
disagree
heft
sunny
decrease
flock
roam
meadow
reggie
surveill
parade
wheat
whatever
insight
swamp
sweat
related
payton
publication
mug
turner
westwood
ceiling
wallace
campaigner
shortfall
drill
kidney
privat
millenn
camer
verify
macro
lima
anyway
predecessor
lockheed
kicker
contentious
taiwanese
commentary
ruler
jimenez
thompson
wilk
slew
grenada
hungry
##ompany
institutional
tribune
lending
bosnian
dynamic
convincing
astrazeneca
airstrike
surveillance
ald
cad
cend
dive
ey
jup
pul
tx
wm
##nop
##elect
##pm
##park
##la
##dah
##atar
comet
##utri
congol
shin
##emaker
usage
##ellar
##berger
moya
joey
blun
accompany
orch
elev
weis
soften
##shot
infection
confer
outing
##athlon
refund
reception
transmit
transmission
willis
speedy
superior
grain
prevail
investments
jerome
extended
notch
captivity
burma
closed
intervene
painful
quebec
surprised
normally
clemson
haas
consulting
clarke
rosen
frozen
hopkins
midsize
##ulsion
converge
eligible
entrance
scrutiny
generator
inevitable
barclays
disciplinary
unauthor
hefty
millennium
jupiter
##noputri
congolese
bub
erode
jolt
jumper
loot
lung
lilly
nur
nail
pear
poul
sasser
tooth
wer
wob
yuan
##oth
##aunch
##hs
##hand
##mu
##mouth
##watch
##gra
##jans
##ingu
##rieve
thief
thabo
shina
quad
alf
clip
clone
offence
##bery
indeed
worldcom
heath
heated
flurry
##erto
telekom
cream
firmly
wanted
francis
labs
solo
solicit
acquit
diving
drum
mcle
##ittal
kidd
consideration
convene
sales
rejection
millionaire
steelmaker
tenure
bulk
bulld
jewel
##ophill
##iences
ethiop
ghost
nominate
nomination
repeatedly
gymnastic
amazing
cyclist
daunt
truly
michelle
jenkins
affordable
arrangement
healthdaynews
conversation
katie
disabled
comparison
mgm
obvious
dirty
griffin
conocophill
creep
epidemic
cendant
shinawat
cn
cem
cure
cope
him
hernand
lan
lenn
nott
nnn
nasty
og
uf
vault
zh
zoo
##south
##cr
##piece
##graph
##bb
##enary
##stic
##oura
##isb
stom
##etta
##etime
##igate
##urer
##edon
##chip
##astrop
##ocation
##iah
##illen
suu
forg
clij
##antile
mario
admission
contra
buc
wars
carly
boise
amban
stead
outrage
##aho
startup
remov
bread
bremen
trio
enterpr
trojans
anglo
lineman
hurricanes
ballpark
glow
loser
petrol
spray
personality
inflate
notorious
compliance
microchip
catastrop
unclear
queens
sacrif
swimmer
mercantile
cultural
libyan
railway
wimax
completion
coordinate
sainsbury
determination
precious
names
purportedly
juror
honeywell
satisfy
##write
riaa
paralympic
schroeder
cayman
asteroid
stuart
alberta
blunkett
shinawatra
bj
bunch
cater
dome
dug
es
fc
ker
nab
ponder
sore
yemen
##rition
##pet
##hoven
##mitt
##will
##gow
##anation
##inct
##aro
##ars
##stitution
##iciary
##itan
##itter
stel
##asan
churn
##owski
##raig
##earth
##iman
plas
##apl
##ieva
##elling
joke
blaz
fright
primer
carmel
boil
bobc
stride
terminal
colour
##outi
##odge
raider
telegraph
revision
##afi
reference
programmer
imaging
explanation
mere
distract
harrison
##ovich
mcd
motorcy
danish
texans
inflict
jammu
hyper
thrilling
archrival
advertiser
excell
excite
bernabe
presentation
cereal
revere
absorb
duncan
bradley
overwhelm
padraig
apologise
bosnia
puerto
reassure
anonymous
riyad
gators
gatlin
wangari
prestigious
archaeologist
dementieva
hernandez
clijsters
bernabeu
ale
bart
cord
cink
coul
eind
hern
hok
junta
ket
outer
qatar
ual
vander
vau
wann
##nant
##note
##vian
##pack
##wire
##uese
##zman
##eri
##anou
##iner
##ario
##alf
##itar
##ethl
##irie
##rie
nest
##chor
##opher
##osit
thanou
##istics
spree
anchor
monster
##ella
expel
exped
##agement
repay
coinc
roethl
assemble
intim
parcell
guillen
sms
provoke
##ichick
belichick
passage
##liner
breaking
footballer
motley
geoff
tariff
##sui
frenchman
apology
oblig
##neft
politically
behalf
conven
blueprint
fraudulent
circum
huyg
royalty
pennant
prairie
##breaking
citizens
commanding
voluntary
serbia
gauge
##karnoputri
mcnabb
flexible
portuguese
outpost
##ihad
embryo
embryonic
concentrate
petersburg
jboss
supersonics
upstart
glasgow
script
buddhist
definitely
pivot
conocophillips
stomach
enterprises
sacrifice
riyadh
eindhoven
vaughan
roethlis
parcells
huygens
bent
bath
bai
had
mikh
na
punt
sistan
vick
vessel
woo
##rent
##rous
##vi
##fa
##fan
##uania
##xual
cher
thigh
shre
shame
anast
quatt
##apy
sukarnoputri
incite
residence
perez
gogh
winn
troub
sciences
recip
apprec
minn
##uba
primar
warren
poly
bother
amit
centrino
terrif
outdo
insect
barrett
withhold
lawn
buyback
powerbook
refusal
athlon
goog
keyword
severely
willie
harbor
mighty
torre
idaho
summary
volvo
confirmation
##hanouk
macint
collide
burund
fixing
clinic
##puting
dominican
sihanouk
kyi
##what
baton
keen
lucky
occupied
berti
migration
johansson
disarmament
rouge
eagerly
suburban
lahore
enthusi
maximum
sourav
lexmark
divert
lithuania
barghouti
hawaii
revelation
rejoin
himal
motorcycle
roethlisberger
mikhail
dure
dorm
hilton
jas
kin
mason
mitch
nu
ned
rah
rider
rumble
sinn
tempt
yus
##cut
##pc
##gart
##idal
##idth
##raud
unile
monkey
##iper
interoper
companys
finnish
induce
brisb
manner
maneuver
##ogg
scoop
conting
reclaim
toys
corps
##ghans
attitude
flip
particle
consc
slalom
afghans
amn
coles
noon
technological
##ieri
headache
palestine
portray
capitalize
earthlink
veer
skull
trek
devote
mysk
##anna
pictures
illust
cabrera
georgian
fishing
supercomputing
rubble
dinner
graduate
oxford
desperately
psv
##initi
sergei
ayat
reservation
minimum
reluctant
brutal
asean
plasma
bobcats
sistani
anastasia
brisbane
myskina
bun
bount
bishop
cous
dill
ead
eruption
fda
jed
jake
jihad
ment
rarely
tow
tib
ubs
vat
zd
##ns
##vity
##corp
##kies
##dale
##gene
##ayev
##icas
##ione
rear
##omed
##ete
##olo
##olive
shri
mond
##illery
foray
##abeth
cling
##idepress
brig
grind
scen
polar
conspire
consensus
slot
evolve
intensive
ont
##iov
nationalist
deplete
antidepress
##bek
belfast
midday
opposite
metrop
radiation
visible
##ificate
##ovic
seeker
lethal
##quez
magnet
jungle
mylan
##annon
middleweight
walkman
karl
lara
hotels
planetary
khal
somewhat
randolph
##ienced
falter
hurl
butter
fatah
##piration
lynn
gillette
laura
lauren
pinch
mohamed
psft
biotech
provisional
bruise
certificate
conservationist
sneak
merchand
artificial
bandwidth
ransom
werder
nottingham
ufj
blazers
primarily
macintosh
unilever
amnesty
ayatollah
antidepressant
aapl
batch
creek
cska
lon
mats
pow
rico
soup
sql
sosa
taj
veto
ww
##sburg
##run
##rise
##vina
##iat
##li
##ference
##sten
##lee
stam
stab
##asp
##thard
chess
chest
##oppy
##andro
shout
plut
quin
quell
alp
finley
brisk
mans
ade
##ogan
beverage
bless
blitz
hein
prevention
caracas
defuse
consulate
counting
milk
slaughter
runoff
redep
finalist
musician
gerry
formation
patter
keynote
martial
judicial
everybody
succession
embark
glance
tyson
cripple
premature
##ribute
standards
myer
artillery
berk
homem
huskies
palmolive
##maine
destination
drain
shaun
elimination
substitute
##aea
iii
linda
mirror
##illermo
migrate
frustrate
exclus
lifestyle
dwight
interference
suburb
manipulate
reshuffle
doughnuts
motorsports
slovakia
bristol
contradict
bubble
ambani
quattrone
cousin
mondavi
dix
dsl
gt
gav
hos
hans
iaea
jess
lip
lamp
latter
niss
nich
pum
pap
pier
rab
tide
vic
wander
wmc
##trust
##rin
##page
##kster
##uf
##erable
##oni
##arre
##enza
stent
stunt
une
##aphan
enact
monaco
##agan
clog
winf
##ogen
contam
ati
orcl
##issue
flare
defraud
##ancing
isp
capri
champagne
medley
noise
confine
##phy
abortion
guillermo
nationally
headscar
addict
sharman
edmon
consume
glove
morocco
debris
breakaway
hardenne
literal
litigation
brave
loose
martins
hotly
glen
likelihood
canadians
##illed
malone
bodyguard
caminiti
dispatch
lightning
beth
dismal
biologist
henin
richardson
ruth
colombo
examination
megap
tendon
punishment
##haust
extradite
colonial
fidelity
beauty
tremor
hudson
ponting
furniture
mls
warehouse
podium
wolver
alcohol
macromedia
conferencing
unauthorized
frighten
coulthard
vatican
quincy
nissan
headscarf
edmonton
benson
bakar
ct
dens
gol
gonz
gdp
hoya
jos
ni
pes
srich
wpp
walth
##sman
##sink
##von
##ho
##year
##dome
##gant
##zi
##bos
##ato
##esity
##esville
inac
##elle
##lyn
chev
##vere
conquer
thorn
##estrian
exhaust
uni
unearth
proud
##emin
trent
trinid
adword
##achel
heir
##izing
symp
roh
mega
capit
soap
abduction
baron
barros
##ucker
relocate
providence
sanjay
antenna
musicmatch
greene
extensive
gloomy
explicit
merely
counsel
analyze
obesity
##redient
outsource
britains
denmark
turin
heaven
robson
specialize
notify
photography
helm
helsink
anymore
samuel
funk
racial
heritage
talented
inventor
legislator
bullish
groin
influenza
rumour
mourner
byr
ahmad
compatriot
peruvian
prolong
pavano
##ierrez
saga
wrestling
bashir
merchant
gutierrez
ingredient
catalog
incredible
robbie
skeptic
torrential
diagnose
dioxide
woolworth
continued
rebellion
ossetia
kurdish
heathrow
contrast
himalayan
contingent
jeddah
zdnet
patterson
capriati
srichaphan
waltham
trinidad
bree
cs
collar
dor
diab
fist
fiction
fitting
icel
jane
mourn
mardy
puj
pierre
rus
soul
wally
wgc
yas
##tel
##payer
##uum
##uana
##game
##zie
##onium
##instein
##aria
##alt
##esa
##ouss
reap
rewrite
##olitan
nem
chand
thus
sham
##ulous
query
monarch
sew
##ellini
clay
##ante
##berra
##iseum
indig
##ursion
contr
cod
laure
airway
buchar
crumble
endless
##center
assam
banks
coliseum
whip
fallout
swirl
smell
redkn
deposit
reliable
##ennial
brock
detection
canon
canberra
eliz
##getown
legally
moral
stars
severance
hamza
humili
##faction
downhill
taxpayer
hotmail
##ijuana
childhood
entit
vera
macedon
##elphi
osw
utter
predator
middleware
##keyes
complicated
fiat
safeguard
wrongdo
constellation
sleek
absent
tenth
attractive
confidential
homeless
aceh
laurent
horizon
princip
dimin
rampant
faulty
observation
bulletin
nowhere
##onzo
kostas
implication
properly
legitimate
kahn
##stedt
antarctic
ricardo
selig
nurse
primera
circumst
burundi
bounty
metropolitan
helsinki
woolworths
bucharest
redknapp
cot
cros
cache
dj
dart
delphi
font
ferry
hiv
horm
ica
mia
mend
nathan
risky
tol
tissue
vp
wazir
##tic
##eg
##ean
##aine
##hole
##ks
##grim
##bh
##bble
##xist
##inart
##icia
##reen
stutt
##amas
##urb
##adic
chunk
##akes
##unce
leverage
leinart
unlim
unoff
anfield
##uma
alph
##areva
##agle
goosen
mog
modu
bras
preside
grill
##icking
scra
tube
beg
##osexual
##ptive
diseng
heap
highest
flame
flower
carling
impending
##conn
microsofts
##ussion
musical
##usegun
##phew
travis
profitability
strife
##urray
##ixel
managerial
russians
strait
##plus
harare
loeb
apiece
undert
feud
void
summon
richmond
feather
classified
jermaine
justine
optic
pilgrim
murphy
donor
donation
bellsouth
fixed
vacant
vacancy
robertson
lieut
dismissal
feroc
achilles
misstep
savvy
understanding
ignite
olusegun
mccain
dusty
devils
substantially
masse
reconstruction
indoor
diversified
lavish
##ropriate
armored
kellogg
forbes
bizarre
fiery
carmelo
eads
merchandise
stamford
megapixel
elizabeth
stuttgart
unlimited
module
bae
geek
hutch
jiri
nit
oao
rit
sour
tb
tung
taint
wy
zvon
##north
##cro
##comer
##list
##yard
##fish
##mie
##mons
##kesh
##wick
##writ
##zo
##base
##ere
##ores
##rome
inh
inner
stellar
##ilia
##geon
nephew
chenn
##aken
lever
##astrous
newcomer
##umman
enorm
grumman
scuffle
pepper
tuc
coron
coral
contem
mineral
toe
disastrous
corpse
##adei
workplace
genome
terr
infam
whene
sovere
aspect
finals
wellington
##awar
cann
rights
belgrade
glob
speculate
lincol
hardie
##scale
shorten
organic
greater
underlie
fever
downer
##hana
mys
youngster
pickup
util
christopher
freely
hyun
hyperson
sammy
pilots
racism
##onduct
vacuum
solutions
ferdin
siber
ethic
initiate
socialist
scorer
##ascular
ratification
norton
laksh
voluntarily
horror
improperly
##ught
typically
indoors
otellini
thunderbird
beautiful
paradorn
vincent
discrimination
orbitz
mugabe
wannstedt
pivotal
dillon
literally
barroso
iceland
pujols
waziristan
zvonareva
##croft
chennai
whenever
sovereign
lincoln
hypersonic
ferdinand
balk
duck
fert
fij
kay
lj
moo
pare
pure
ranch
sage
##nix
##fth
##fold
##kh
##king
##bul
##bone
##xy
##anor
##arn
##orous
##icity
##itous
##rock
reed
##asse
##ides
##chan
##check
coma
thrive
##elli
clam
marqu
artery
indec
gran
peg
##acho
accur
crus
defer
##adega
retief
secondary
background
afx
banknorth
intact
surplus
knife
telecast
revital
coaches
canas
forever
franco
capitalist
campaigning
##iko
obasan
autumn
fein
multic
juice
potent
gunship
silent
##icipated
snag
strateg
hynix
committed
biological
henrik
##puted
facil
wakefield
vanish
constant
fairly
penet
girlfriend
randall
sandy
##named
guerrero
hideout
dunn
aeronaut
gardner
sustained
synch
horrif
unhapp
reactor
cosmetic
talladega
prolif
sergeant
undisputed
maverick
extinct
hartford
slaying
ronaldo
bromwich
frustrated
congratulate
cinema
maiden
literature
prohibit
steadily
breeze
wrongdoing
circumstance
disengagement
bour
cue
dil
hut
jiang
mp
mack
mock
muss
mittal
rale
taker
tesco
viz
vert
vib
went
wend
zo
##vs
##aren
reyn
sty
##adena
##idt
##lying
##user
shine
composite
unarmed
unnamed
spoof
monument
alonzo
##ardon
##aba
clipp
##anta
marijuana
##irect
trash
##achov
coors
marks
decap
carson
partially
participation
gets
northrop
##ahar
leaderboard
revolt
elabor
##aterina
##ushita
edg
publicity
financier
caes
warne
##ronics
novak
organiser
simulator
##onsider
erdog
greenberg
##ometric
candid
irre
anybody
archive
prosecute
dread
homec
homosexual
hallowe
connectivity
##zzle
bribe
viagra
harmful
sensation
devastation
guideline
ashcroft
niche
compensate
netsky
methane
taunt
lifetime
##omenon
ecu
##rocket
lagos
bruised
renter
unconstitution
lazard
deliberately
implantable
vieira
pasadena
pixar
phenomenon
imperial
homestead
uproot
wilkinson
forgive
mitchell
conscious
shrimp
matsushita
plutonium
martinsville
icahn
unofficial
mogul
mysql
lakshmi
obasanjo
raleigh
wentworth
clippers
erdogan
halloween
unconstitutional
gp
gent
gast
gab
hbos
kon
katerina
loft
mental
nal
pipe
rol
tata
uri
vaz
##uve
##gler
##ori
##enant
##enous
##store
##stroke
releg
##ente
##isley
##aced
##asy
neil
nebr
##verson
deaf
##opal
##osm
shun
shade
exempt
animate
usher
alger
clive
##antic
##bers
interrupt
reconsider
blad
disqu
acclaim
frat
annoy
phon
daylight
commuter
prey
carn
meal
evans
intrig
##owner
genu
##aha
##ierra
smack
##odo
raft
websp
firef
edt
edgar
nascent
communicate
morph
##appan
digest
famed
twicken
koreans
cardiov
translate
paisley
obstruction
informal
mcken
outsp
bowden
gloria
gravity
url
davidson
struggling
radioactive
disputed
skid
silva
credibility
##bandian
sometime
protestant
funny
biometric
skyrocket
tripoli
crazy
villene
optimization
random
grokster
establishment
reinstate
ghz
byron
abdul
venerable
chaotic
lehmann
ridic
havoc
rhet
akron
satisfaction
bakeries
nanometer
overwhelmingly
populous
habitat
hotspot
mcgrady
fulfil
infiltrate
tatiana
frenzy
quadru
excitement
interoperability
tibet
pummel
hormone
lieutenant
infamous
homecoming
nalbandian
websphere
twickenham
cardiovascular
mckenzie
bio
cave
fet
fantas
hank
hood
iverson
kee
kumble
munch
migrant
murray
ouster
peek
rb
rational
romp
rocco
sigh
tae
ubi
wield
wachov
##try
##pid
##pot
##lop
##yip
##few
##diman
##xon
##eno
stave
staunch
##aman
##amount
##riy
##rible
##gey
neu
neut
##christ
##usen
construct
##imo
thro
leagu
shap
shah
exxon
spit
pron
prone
plac
quinn
suitor
incursion
acre
marxist
corn
recount
blaze
iraqs
##avor
##ernic
attribute
airlift
carb
##xture
bovina
bogey
backward
marketwatch
seasonal
impover
terdiman
##ansing
grower
overth
efficiency
actual
retailing
billing
##oken
pci
apache
georgetown
administrative
balloon
filip
##wealth
copernic
woodward
##borg
thrust
funai
boxer
welfare
intelligent
legislature
doubtful
khat
commonwealth
bolt
safeway
somewhere
minded
unfortun
booming
brighten
oliver
tricky
##iasm
sophos
tayyip
gradual
boris
permanently
dwindle
indictment
endorsement
taba
bogus
anonymity
leonid
mediator
lazio
anxious
enthusiasm
bahamas
##izzle
misery
miserable
autonomy
vigil
adventure
configuration
ethiopia
expedition
heinz
principal
caesars
vazquez
nebraska
villeneuve
ubiqu
wachovia
impoverished
bast
dazz
fret
gn
istan
ki
kle
kir
kerr
lg
nm
nou
nudge
piz
porter
pardon
righth
sway
sierra
ump
voy
wary
wane
##rase
##eo
##vale
##cal
##wear
##drop
##battle
##onso
##orie
##esy
rex
##isign
##asing
##olly
##ader
##unia
##unken
##uttle
shia
newf
anal
##berts
interp
arise
##ogp
covent
playboy
eugene
prefect
sybase
carve
roberts
milton
slack
slogan
regiment
stein
##shed
improb
onsl
##sons
parcel
remnant
withstand
##perform
elusive
elbar
bombay
subway
propulsion
patience
keeper
merri
motogp
geographic
diva
controller
drunken
humanity
grapple
greenback
stormy
entice
gunpoint
verisign
salmon
notable
booking
rollout
freder
awards
rainy
burgeon
##egren
closer
garner
prospective
jacob
sensational
queue
##aired
##aught
arrington
instruction
liquor
mercenary
duo
darkness
phillips
marriott
memorable
victoria
cosmonaut
rampage
certify
therapy
uganda
midsession
banco
autonom
bettman
irregularity
demolition
kristen
misconduct
kettle
citizenship
scenario
exclusively
byrd
tungsten
enormous
unhappy
decapitate
elaborate
quadruple
fantasy
overthrow
khatami
istanbul
coventry
improbable
onslaught
elbaradei
benn
bye
bcci
dak
dru
eid
footh
goss
gsm
gerald
jock
kg
rite
tam
wbc
where
yan
##cade
##lif
##fly
##matic
##kos
##inity
##omin
inade
stag
##etable
##ecure
##asa
##urchase
##ceive
chass
proxy
##ima
thaw
leed
compute
unac
unified
alv
##arez
##agbo
##ourt
##ipher
resumption
perf
repurchase
brend
corrupt
minaya
##assee
timetable
commons
netware
backman
amman
impasse
outwe
##ansk
supplement
soak
rematch
##lessly
webster
hosting
protein
rebuff
products
anticipated
meta
carefully
##restrial
##bren
greatly
thinkpad
glax
louise
petter
gunbattle
candy
irrit
credential
##cript
calorie
held
thrill
egyptians
burial
curfew
fleming
jefferson
garci
attendance
ideal
dodger
someday
melvin
besides
prague
anthem
drinking
keane
blues
gbagbo
gilchrist
sarah
printing
buckingham
gradually
unharmed
julius
infected
renown
kuwaiti
barbara
##onymous
yugansk
stinging
warriors
molson
kirkuk
conversion
calculate
ajax
aggrav
procure
##heimer
rosenborg
veerappan
redeploy
wolverines
capitol
undertake
facilitate
genuine
outspoken
prefecture
chassis
outweigh
garciap
auss
bacter
cens
cio
fm
hap
hinder
jug
kend
lisa
lodge
mature
mps
mpa
nak
naz
niel
ringer
sask
tn
tame
uz
vit
winger
xstr
zemin
##rus
##range
##hur
##how
##fb
##function
##kov
##uber
##ju
##ering
##ionary
relev
inher
stare
##aca
##acon
##acious
##igl
##terror
negle
##untle
deem
##istans
sprawl
##allow
alike
supers
clipper
claud
##iph
perception
marino
brake
adul
adware
##ignment
recession
##ersh
accurate
fres
anne
decent
slick
europes
stefan
##gins
revival
triangle
goodby
goodwill
everett
firework
concussion
morrison
##plate
domination
hampton
broadly
brag
applaud
florid
underdog
undercut
stoppage
children
erad
clement
skate
specialty
parking
lightweight
##uckle
helmet
celest
sniff
karol
donate
bloodshed
santos
contentguard
welsh
herman
integrity
reneg
cocoa
flawed
beset
kyodo
mountainous
absol
curtis
unfold
aerial
lankan
virtualization
saban
fenerb
sacred
refinancing
victorious
felony
mohammed
farewell
shelve
gigabyte
painting
hispanic
registry
consistent
pdf
somalia
icann
chronicle
hsbc
ofcom
albanian
pepsico
bulldog
catastrophe
distraction
obligation
alpine
ferocious
leverk
territor
ecuador
rhetoric
neutral
ubiquitous
dakota
garciaparra
mpaa
xstrata
neglect
goodbye
aber
bare
barge
bicy
diana
dirk
fung
fasc
hm
hil
ion
icy
kro
kier
lop
mold
nurs
pess
pab
purn
rift
rouse
ridge
zee
##vine
##ii
##pace
##yane
##most
##mington
##master
##kline
##boston
##inational
##ouf
##ledo
reid
ine
##asive
##ige
##terior
##child
chore
chole
##imp
thump
leander
newton
spar
prud
alam
alicia
seiz
seism
clim
cliff
##orde
traction
scout
##rown
disl
suntrust
lava
commem
pregn
defens
rochester
marketer
amr
newslet
parker
##ithkline
courtesy
halve
weblog
ups
upscale
##ango
##pective
electron
extract
editing
proponent
following
francona
##sterol
accountant
considerable
erick
cripp
germain
multinational
negotiating
bald
easier
##evance
myst
notion
saver
scheduled
cube
##space
downloading
##former
viewing
##gae
tightly
predictable
suprem
bias
statistics
screening
curtain
grievance
encry
herat
dominion
shocking
surely
lieber
springfield
wisdom
spiritual
physic
nickel
ashore
sponsorship
fashioned
frequently
intensity
serbian
fleetboston
caval
liquidation
ellis
compatibility
dwyane
multimillion
transformation
arbitrator
embarrassment
deportation
mathem
outpace
thorpe
disgrace
tumult
stubborn
jeopard
molec
sunnyvale
buckeyes
shrek
appreciate
##writer
proliferation
##osmithkline
disqualif
righthander
umpire
##lifter
pessim
cholesterol
seizure
newsletter
bike
caz
couch
dy
dad
dull
eject
fitness
gi
gand
gilles
hog
hash
ia
kw
kpm
mire
mmc
phn
pors
roo
saks
till
tallah
vcr
wag
weep
you
##name
##nett
##ring
##een
##view
##cke
##kas
##zny
##ined
##enove
##atis
stump
stagger
##ingo
##igion
##edo
##ided
chiron
##earer
##imi
##imedia
sheep
shev
shamil
sputter
pray
##iane
##emia
##ppe
##pping
alg
##ardin
##agate
interfer
reply
tepid
fincke
brick
mann
fried
##acht
toledo
joel
coat
##quest
laf
laos
phrase
orton
orde
##gram
##roscopic
americas
##derstadt
backpack
amir
infant
countryman
holdout
engulf
##ahce
schm
swoop
caller
religion
revoke
olympia
overstate
##afa
antisp
spacewalk
subsequ
injunction
aval
merit
holtz
##eshift
solberg
philos
fanfare
raceway
gainesville
realm
##pepper
massu
valve
balloting
glaus
filderstadt
panic
africans
devise
spokesperson
##itzki
flyby
##anny
snack
dougl
totally
cricketer
tempe
biology
probation
premiere
rowing
treasurer
kenny
bandit
penh
grozny
graphics
scoreless
respected
pretax
physics
recognise
brighton
cartoon
swapper
furcal
loyalist
ferrero
albion
tailor
disappearance
racket
jarno
rhode
poisoning
agricultural
deportivo
##baston
dictatorship
swiftly
assignment
bleak
intrusion
rutgers
culpepper
nowitzki
makeshift
mammal
hugely
ftc
linksys
croatia
flushing
buttigl
lloyd
obscure
claude
removal
dugout
mcdowell
coincide
homemade
laureate
ritual
contemplate
edgbaston
keegan
foothold
inadequate
leeds
glaxosmithkline
nielsen
claudio
fenerbahce
leverkusen
pablo
cazenove
kpmg
phnom
porsche
tallahassee
antispam
douglas
buttiglione
bib
ced
cock
ea
fib
hin
hatch
hano
hoop
iet
kas
kern
kolk
lid
mum
pund
rend
ranger
sak
sull
tant
uc
upt
urug
yu
yum
##nik
##tra
##iott
##cats
##lash
##har
##bold
##erm
##arav
##alle
##alie
##ayed
inz
##elena
##isode
##eta
##eco
##asco
##amam
##think
##raint
conj
##igham
shearer
exagger
unn
spor
spider
plo
##aph
##illo
inclusion
##abs
clamp
brigham
scal
tuck
##achim
joachim
blunt
launder
flop
sundays
default
rojo
ammun
assumption
stricken
surcharge
technician
confed
aux
operational
asarav
##athina
dealing
knick
tragic
redwood
strive
striking
courtney
payout
raj
handic
overpower
##perse
refr
elin
avian
communicator
midwest
moroc
morale
placement
geico
basayev
radi
hardline
careful
fanning
portra
distingu
equestrian
cardiac
transpar
charle
booster
judiciary
sims
bowling
considerably
clearance
##flow
multan
panathina
dispel
gunner
policymaker
directors
guardian
hospitalize
##bao
retiree
suffering
expression
automation
cancellation
rogge
routing
disappointed
curry
encoura
##zza
excel
learning
roberto
navigation
jews
somehow
regularly
sandisk
episode
arthroscopic
aere
nomar
respective
nickname
philipkos
ryanair
haunt
galactic
ailment
tightening
bucks
baq
dictionary
clarify
julian
altitude
promotional
wolfsburg
waive
sailor
accomplishment
coleman
pdas
skeptical
isolate
isolated
nordegren
sedan
recreational
emphasize
tasman
turbulent
poultry
queensland
butterfly
indigenous
oswalt
filipino
analog
adultery
bragging
ordeal
hanoi
ietf
kolkata
pundit
urugu
ammunition
asaravala
philipkoski
bab
colog
cattle
crawl
fon
fied
hes
has
hoo
hod
hich
hicks
jong
liv
nh
nix
ou
ounce
rudi
sect
sock
sooth
wart
wise
zap
zach
##election
##len
##fax
##mic
##map
##girl
##ora
##aliation
##leton
##entin
stim
##ecenter
##cester
##ries
chill
chitt
deion
##osedly
levy
shuffle
newman
unsp
plough
usb
sup
seam
##anyon
##aged
##agong
opel
indias
trounce
grit
gram
scuttle
cornell
recede
disgu
discontin
disperse
accession
accomm
##ernet
buick
crane
partisan
retaliation
ministerial
genius
onboard
nod
supposedly
insure
insult
homeowner
swath
allan
emi
rebate
mukesh
##alyst
##hdi
##arko
studios
instance
keyhole
##ueling
possess
distant
disturb
tarnish
marty
obstruct
employees
mcne
embro
glad
##ipple
sooners
veget
replay
gunners
salem
skg
specially
shutter
mydo
qualification
photographic
calf
arabiya
anytime
flying
montana
monteneg
montoya
wildcats
nonpro
documentary
reviewer
bellamy
favorable
benj
garage
swede
logistic
sanders
existence
hurry
federated
sterling
tentatively
greensboro
postponement
weightlifter
haq
pioneering
crushing
inaugurate
ailing
synonymous
loyalty
adjourn
comfortably
##ibern
renounce
gigabit
riddle
prolific
deduct
customize
mudslide
excessive
lahoud
chartered
smuggle
huddle
tumor
depression
bettis
hotspur
mcgrath
coveted
##builder
rehabil
lloyds
guru
reunite
motivate
alderson
woburn
excellent
recipient
jaschan
yasir
strategist
synchron
bladecenter
shaped
bennett
fresno
territorial
bicycle
supremacy
confederation
fiedler
hicham
chittagong
disguise
accommod
mydoom
montenegro
aqu
baff
coo
cfo
did
derr
esa
gore
gannon
heck
jor
jub
kiss
ln
lapse
lamb
mare
mish
miz
nun
pork
pale
pins
sul
tul
tong
vid
wran
zamb
##tone
##sing
##rans
##auc
##iers
##cap
##las
##hid
##matory
##kel
##kot
##wind
##inite
##inely
##arak
##storm
##esley
##rection
revers
##omon
inactive
##eton
##etter
##etsk
##ved
coming
chi
chor
chal
chilly
##istry
unre
uncom
spear
spart
spite
spade
quentin
##emoth
alz
align
##agraph
clout
claw
marvin
##uda
arrow
arbor
adelphia
##isher
##oga
tug
beaver
apprent
blink
blister
fraction
makeover
##issa
flesh
##ancer
endurance
##grily
softbank
seasonally
workout
##shasa
norman
paramount
stockholder
##ahee
barber
##erties
##athy
australias
raul
searching
##angel
##ornado
emit
mobility
extent
bagwell
belove
scoreboard
proportion
properties
demanding
breakfast
ibook
##soe
packer
charger
browsing
looph
promo
##hamoni
boardroom
darling
mcm
behemoth
clearing
accessory
damaging
##flight
malfunction
focused
candle
skating
nyunt
tracking
choke
worthy
freight
jacket
jackie
trafficking
earnest
diplomacy
khin
commonly
ringtone
sparkling
sihamoni
masterpiece
blogging
wilmington
fals
##escu
bangladeshi
punter
impression
symbolic
ashe
mclaren
matsui
perspective
andrews
escort
magnific
wreak
bhopal
borland
renov
rebuke
greeting
sergey
sweeten
simultaneous
jenin
smoothly
molik
reservist
aggreg
context
inexper
##brook
enlarge
fisherman
quantity
omnimedia
jeopardy
mcgahee
sgi
staples
eyed
daunte
namesake
stelco
outdoor
enthusiast
kinshasa
cotton
##egaz
hutchison
fiji
lofty
merriam
yanuk
yuganskneft
uzbek
##hurst
floridians
celestial
shevchenko
interfere
moroccan
portrait
cologne
nonprofit
benjamin
jorge
pinsent
wrangle
reversal
loophole
azz
bb
babe
dign
dile
dirt
fug
fitz
gust
giz
grove
jes
jol
jens
kor
lope
mes
mide
mub
mash
nw
om
peng
panda
rica
render
samp
##some
##ril
##van
##corder
##pill
##hou
##yes
##mma
##making
##bred
##anne
##orian
##icester
##esign
##itomo
##eland
stint
##ecd
##ecified
##eded
chang
##ravel
shooter
##ctica
compelling
unify
unilateral
encl
##ocal
##illate
seo
seagate
##iege
##ected
cler
reseller
perk
perpet
marie
marines
marbury
agon
manpower
##itek
recy
cram
libel
##grad
consent
retali
backe
backdrop
markets
nextwave
setting
poet
paragraph
noah
whoe
##outimi
sober
guang
delio
rauc
##letcher
olympique
##ranean
susan
windfall
##alya
advoc
trot
fightback
competit
cauc
funds
diebold
twink
rockstar
schoolgirl
transl
harvest
nova
organise
browse
drench
##nez
##uki
mosley
chicoutimi
sumitomo
semin
camcorder
juke
leftwich
heartbeat
verbal
waterford
treasure
sufficient
effectiveness
expertise
artisan
photosh
benef
freel
woody
separation
wildly
easyjet
downing
complicate
noneth
probable
bellhorn
licence
garnett
attendee
nhlpa
logo
shea
mushroom
epstein
varitek
arthur
educational
##keeper
menu
wonderful
batman
ghazi
zimbabwean
tablet
gmt
olive
sustainable
mandatory
inauguration
synd
refiner
dumping
unusually
bhut
phillip
princeton
fleetcenter
gallery
mallor
suzuka
unpro
spotlights
bogota
intruder
jpm
misleading
nanot
disgraced
unseat
solely
multipl
paso
antarctica
meaningful
companion
companies
foley
jewelry
caterpill
intimidation
baikon
troubles
vicente
pesky
entitle
renteria
fetch
procurement
##terrorism
eradicate
fungus
commemorate
physicist
unspecified
embroil
apprentice
dilemma
fugitive
lopez
mideast
mubarak
whoever
photoshop
nonetheless
caterpillar
bros
ces
cian
crist
fior
how
hag
hind
lis
lov
mtv
pand
qb
ratch
riley
sial
ti
vel
yell
ze
zomb
##oh
##aa
##iety
##fn
##kowski
##wing
##wah
##uably
##uzz
##bot
##block
##erre
##anova
##arity
##aragu
##enberg
##aler
##roen
reelection
##elb
##isd
sticker
##ilis
##aser
##amation
##cha
convey
thread
leaf
leuk
leiter
leicester
##estimate
shim
##ulative
angrily
used
##ftop
alto
forces
##endous
performer
acid
ard
trull
aged
brin
##olds
scope
beagle
##dued
laud
##loid
flirt
warhead
defiance
ending
retake
retrieve
openworld
sloppy
saturdays
##shine
stranger
terrible
mediter
demise
insol
insuff
barney
barnes
guzman
aspiration
##odrome
lawless
russell
olympian
posting
overcharge
hostility
costas
canal
emile
subdued
standout
actress
turnout
investors
merced
arag
empt
videog
divisive
portis
##oko
battlefield
loosen
martnez
landover
simulate
torch
operations
##anek
gasp
prosper
divisional
suspected
accessible
tiebreaking
chinas
balanced
positioning
myers
fragment
irna
irving
retired
squarely
outlast
italians
acceptance
buddy
congressman
rodgers
stata
grieve
herd
arguably
bribery
extrav
besiege
wilt
ethernet
orbiter
instantly
collector
jonny
salvo
paperwork
swisscom
resorts
respectively
revolutionize
physician
bitterly
nicaragu
stringent
editorial
exhibit
clarett
necessarily
dynamo
flexibility
tabloid
adjustment
unanimous
indefinite
xml
scarf
emphatic
unfairly
anxiety
essentially
watson
yangon
brooklyn
demolish
taser
cameroon
pearl
##iatric
contaminate
ctia
density
brasilia
cannon
globally
hutu
mussina
reynolds
gentle
unfortunately
prudential
pregnant
encryption
rooftop
sullivan
inzamam
encouraging
sectarian
beloved
yuganskneftegaz
raucous
twinkie
jukebox
freelance
bhutto
mallorca
ratchet
sialkot
mediterranean
insufficient
mercedes
bil
bison
cm
cou
cush
canyon
dear
dope
fry
fume
fancy
jia
kap
lens
lull
lug
lama
npr
ody
rc
rower
sic
tav
tier
tilt
vern
vangu
wasser
yale
zig
##sb
##rs
##iour
##ciate
##pat
##lu
##figer
##mage
##uing
##uware
##gard
##grove
##onet
##inas
##inform
##oring
##alke
##ayette
##icom
##esome
##roe
reef
##isys
##urally
##irst
##thouse
##rix
##chedule
chuck
prost
congest
##opular
##istical
exotic
##eem
##ulance
compuware
unravel
##umat
##emate
offender
##antage
reschedule
perennial
marcel
repro
serial
tril
trucker
brack
##ogy
##ogle
bext
disband
fram
planner
commence
flatt
crate
warfare
carroll
deflate
surg
generous
##conference
inflam
confess
yorke
##cod
schalke
swatch
knuckle
nationals
finalise
deprive
telef
##oteur
triathlon
gooden
lowell
poster
##orne
poweredge
costco
belmont
nasd
singe
patern
billboard
mercy
davie
angl
geologist
suck
basel
distillate
##peed
controlling
##ikos
applied
##brand
##redo
californians
kidde
idle
glorious
grape
springs
purch
popularly
malware
volcan
entity
andriy
conditional
appeals
practical
roadmap
blowout
ramsey
mountaine
cpu
wooden
tonne
burning
rodney
citroen
routinely
significance
telco
castle
destine
catalyst
hatred
feeley
sided
briefing
okla
##ews
educate
hideki
lucas
stephon
snapshot
hasselb
punitive
saboteur
megson
mahal
equaliser
pornographic
rugged
pinpoint
unherald
exposure
coffin
digitally
wholesaler
cosmic
cambodian
authenticity
unpopular
##structive
##parc
pleased
disgruntle
populated
stalemate
legitim
procter
multiplex
historical
frustrating
thoroughbred
recreate
sgt
staple
scourge
warsaw
yemeni
gavin
gaston
throat
pizza
newfound
interpret
##brenner
aussie
hilfiger
jeopardize
schmidt
sporadic
auxerre
soothe
discontinue
tongue
alzheimer
multiplayer
baikonur
zombie
trulli
videogame
odys
vanguard
bextra
unheralded
ai
bound
bass
dover
elude
fdi
fletcher
ghana
mri
mim
nanny
od
qass
riv
rade
rbc
rachel
sizzle
tin
tomb
ub
vient
wen
yam
##track
##rade
##rama
##pie
##lusive
##hoo
##ym
##fia
##kie
##ges
##bound
##xi
##orch
##eni
##still
##stock
##stically
##ouj
##rester
reim
recharge
##isal
##etes
##igata
##ido
##throp
##raid
##une
throt
##esset
##esta
comprise
unab
unrel
prad
alou
forrester
resil
perch
marse
advers
scler
coruna
atlas
blake
##dux
deck
flour
sympt
softball
##ultan
runaway
assail
intc
stevens
norwich
impair
businessweek
whis
##ahy
##ahan
ababa
courthouse
swallow
palo
##athing
knesset
redef
redesign
header
hitting
payoff
allay
unionist
elton
addis
sharm
spaceflight
eden
baggage
beating
standstill
legg
restrain
restraint
holm
wrack
financially
procession
liner
solana
dole
twe
gainer
equally
##score
harvey
charm
simmer
darrell
outsider
##ceptable
millar
neglig
ern
erit
baylor
purge
damien
janet
jamie
skirt
shutdown
envision
machin
practically
directv
italia
arabs
betrust
naturally
snub
separately
##moth
acceptable
oakville
astronomy
##etery
santini
##anche
commentator
richards
inflationary
villar
bulgar
liberia
servant
fairfax
drastically
##brew
guerrouj
burns
chemistry
perfectly
regardless
ahern
holland
beltre
vastly
crocod
streamline
sorry
rodrigo
froogle
##oltz
##leader
altria
montgomery
akh
masri
dressing
axa
skeleton
michelin
buzzer
incorrect
traditionally
attachment
psychological
elementary
moody
evaluation
meltdown
resurgent
loren
mammoth
umass
staley
discriminate
phenom
kosovo
nutrition
jabalya
pepsi
immunity
elevate
cemetery
convenience
magnetic
adequate
blessing
niigata
diabetes
humiliating
diminish
kahney
tucson
sovereignty
##arnation
multicore
wendy
rolen
bastion
steinbrenner
unacceptable
kendall
inherit
hmcs
tumultuous
wagner
lafayette
subsequent
cedric
hindu
laundering
panathinaikos
mcnealy
accommodate
inexperienced
advocacy
throttle
sclerosis
symptom
bulgaria
ahold
boll
cogn
courage
daly
dancer
fn
fant
fax
gid
gill
hast
iee
jd
kane
karm
lore
mn
omin
pant
pup
pipp
rhy
vil
vary
vint
xs
##tile
##tran
##tronic
##si
##sense
##ridge
##eur
##pike
##hem
##firm
##dell
##uch
##zon
##zel
##xia
##erion
##ares
##ales
##atri
##icz
##icidal
##oured
inapp
invention
##elin
##isle
##ilation
##acent
##igo
##ammar
##iration
chap
cheek
##usk
##verse
##essy
sho
shave
splin
anbar
monza
alk
allev
yearly
suicidal
##aganda
##mers
acer
marble
reprieve
reptile
arra
winston
adsense
grud
sci
peac
beit
recoup
reckon
minivan
sunset
lauder
##issance
weed
weird
oilfield
warrick
lipp
netegr
carr
defamation
##gren
isps
deser
statehood
profound
sete
afl
afar
afraid
evident
poach
workers
intra
##sheet
stray
infonet
noble
basement
abn
abund
##inkle
##ucci
delray
smoltz
hitch
paycheck
brees
unionized
antib
##aijan
bagle
drugstore
singel
patri
midland
turnpike
instability
westfield
##ression
motive
eastley
geforce
recep
charism
apec
drc
underpin
downplay
taxi
owl
criterion
sidewalk
purse
##series
fullback
classroom
actively
inflated
robby
potato
gamma
##burse
magna
juniper
guardsman
drawing
mustafa
irs
madras
beard
surgeon
limp
roadblock
calpers
indonesians
christina
betting
spaces
awful
natwest
snare
cruciate
rogue
complication
curious
benazir
battered
##sided
illicit
luiz
navigate
penney
bulg
undec
drastic
siro
solidify
mistaken
unbeatable
##monds
contributor
tsb
abbott
curtail
azerb
multiyear
ashley
##glass
commando
hubie
objective
##smart
consultancy
railroad
breeders
mccaw
##bourg
##paid
moderately
scramjet
miniature
dependence
namib
behaviour
ultras
rashard
hydroelect
colonel
sneaker
diouf
fernandez
plummer
pleasant
deliberate
reorganize
brunell
smuggling
paradise
hoax
manipulation
docking
satisfied
bumpy
##broker
doughnut
enlist
cemex
rahul
illustrate
berkshire
janeiro
nemesis
contrary
crosby
dartmouth
scrape
siberian
aeronautic
firefighter
bacteria
superspeed
renegade
kroger
lopsided
ineff
erickson
mathematic
kernel
handicap
charleston
baquba
chorus
promoter
magnificent
uzbekistan
pengu
competitiveness
jpmorgan
aragones
cushion
flatten
volcanic
disgruntled
odyssey
vientiane
redefine
ieee
splinter
netegrity
azerbaijan
hydroelectric
superspeedway
bne
diverse
ecos
fia
fond
fury
fiance
glam
gibern
hoy
hinge
kun
kitch
klins
lec
lund
lula
more
mens
nig
nast
oj
oecd
pic
pine
pesh
pasc
pseries
raz
seneg
sarko
tuts
uae
vna
ye
zen
##aq
##vid
##cu
##cker
##law
##hu
##mire
##with
##giant
##zed
##zhn
##bed
##qi
##eror
##onk
##inx
##orig
##oration
##alion
##stown
##enth
inability
stroll
##ilitar
##amax
##urge
##thy
##thm
neur
##chem
ching
chalk
deer
##opping
##essandro
sheer
shoa
unfor
unisys
unpaid
spinal
spitz
prong
##ocre
worcester
alcs
alessandro
sevens
fores
forfe
clough
expiration
interaction
perc
peres
acute
##ifi
oprah
indirect
agenc
adri
##rowing
##ube
accust
##quel
decid
##aves
##avier
flick
flint
elegant
preca
##derabad
##derrama
##alez
amass
regent
impaired
infert
paralle
colvin
records
confus
demilitar
outd
internationally
abide
aborig
schwart
guitar
guwah
traian
depict
##ibank
reliability
sanford
webb
handy
overrun
sellout
looksmart
footstep
putnam
winds
gloom
francois
emperor
packaging
secretive
distinct
realistic
invoke
broadcom
harass
harness
harrowing
brazen
martian
landmine
underestimate
simms
energ
darlington
##itten
valderrama
supervis
astro
gamec
waterhouse
treason
myth
jetliner
arabian
monti
rollins
readiness
crisp
snake
koh
kingston
hyatt
hyderabad
donetsk
kickback
andrei
citibank
dismay
grief
henan
benign
certainty
lottery
fixture
navig
unlock
constantly
madden
maddux
ferenc
hacking
##ipeg
dravid
advanta
smithfield
wilkins
hurtle
cnnfn
dunk
riggs
buffett
instruct
fortnight
bertie
complexity
immort
sacking
refining
albany
dhabi
ligue
rosy
trumpet
endangered
frog
battalion
grossman
advisor
bambino
bureauc
alberto
meteorological
##iyah
sequence
diversify
cooperative
nader
nadal
descendant
mediocre
counterfeiting
anxiously
kanpur
relieved
smoker
implicate
sebastian
eligibility
chambers
dalai
assertion
emphasis
pesticide
incompet
wheaton
##electronics
shining
orchest
mclean
mcleish
lenny
ogden
nestle
convenient
hadji
winnipeg
nedbank
yusgiant
sewage
clayton
macedonia
vpn
ljub
accuracy
uribe
phonographic
intriguing
ridicule
frederick
autonomous
brendan
aggravate
naked
purnomo
climax
crippling
vegetable
rehabilitation
spadea
emptive
vernon
marcelo
anglican
pradesh
marseille
betrusted
crocodile
fantastic
pippen
alleviate
deserter
patriarch
bulgarian
undecided
bnei
ecosystem
gibernau
kitchen
klinsmann
senegal
sarkozy
tutsi
shoaib
precaution
parallel
guwahati
bureaucr
yusgiantoro
bung
ci
cott
dl
duff
diary
eh
fog
gail
hr
hak
io
izz
kand
lac
lur
lansing
mh
mant
nath
pon
pens
rope
rsa
sis
tiki
wig
xia
yon
zab
##town
##seller
##court
##ych
##fy
##ktada
##wamy
##des
##uiver
##ghn
##brow
##bishop
##inburgh
##ared
##oran
##aland
##icic
##esi
##oudy
##elon
sto
static
##ilak
##etaker
##olz
##thur
comic
##usa
promin
shores
exod
##uling
spat
spice
angle
anterior
plow
##iani
##ocity
mongol
algae
##ainson
fork
##ages
##ants
secunia
marco
indemn
moktada
trus
trich
trudge
tressel
adolph
scathing
##ursor
bean
bever
recapt
covert
fray
sunshine
orph
prehist
caretaker
polio
backlash
##hertz
investing
evade
newsday
terrap
terrestrial
infielder
colt
##ahu
swainson
##inker
##uccess
##ucket
aspire
knox
smb
smog
##ibb
raik
searcher
upside
overhead
looking
refrain
protract
##rano
elan
addiction
rounder
edger
edinburgh
propaganda
patt
midfield
midweek
speculative
##retch
##baliya
restitution
farming
##apped
hearts
writed
basescu
doj
discard
hamish
hamburg
jebaliya
drilling
judo
everyday
##itte
bowa
williamson
tomas
eventual
err
clever
storied
turtle
tiebre
camden
camacho
robbery
skater
trev
allegiance
irans
##crime
christians
freesc
jackpot
walkout
larsson
##forth
throng
archbishop
experienced
eyebrow
racially
measurement
##ysis
##venir
biomed
biogen
boyfriend
kashmiri
uncle
misd
switching
epson
falcon
trusted
buffer
buffet
attraction
rato
dialysis
stansted
unsuccess
mirage
adriano
sternum
mandelson
motherboard
cultiv
buckle
detective
scanner
kluiver
ecst
intentionally
escalation
lobbying
iconic
bleed
purported
fabr
fabric
lamar
leonard
nadia
deliberation
smuggler
unseeded
souvenir
concentration
thrashing
entrench
hanover
reshape
deceptive
historically
quantum
clause
skiing
disagreement
daunting
yusuf
lonely
powder
hosni
uneasy
gonzalez
marquee
revitalize
penetrate
horrific
annoying
renowned
cavalier
stubbornly
gandhi
youzhn
staggering
backpacker
radiosh
wartime
##micro
didier
lisbon
leukemia
shimon
prostitute
congestion
framingham
reimburse
flourish
villarreal
rhythm
##firmed
ultrasparc
peshawar
forfeit
percival
agencies
decidedly
outdated
mhz
exodus
trichet
recapture
orphan
prehistoric
writedown
freescale
biomedical
kluivert
youzhny
bip
bord
bled
cah
census
db
daw
duce
dwell
drog
ek
eight
gian
gps
hust
holog
hoon
ja
jing
jog
kam
kate
kov
kew
lb
mism
macy
nz
nog
ole
pamp
ripple
sardin
sultan
tac
tak
tand
tester
tiff
tins
vinc
xavier
##sat
##ause
##vantage
##cely
##hawks
##father
##mson
##wash
##green
##zar
##zak
##jandro
##erun
##inis
##aran
##eny
##rox
reload
##entech
inbox
##asm
##igue
##olence
##olics
##rio
chipper
##usc
##rax
destructive
##ando
lefth
newmont
sparta
##alless
##apag
##oca
alvin
suv
seg
intermitt
gobble
goalless
marit
marad
managing
adt
##ogram
grasp
scrim
##pture
atari
appropriate
##assault
##ollo
heed
coin
##ensively
anna
dechy
##asonic
##izable
flot
airfare
airtran
sylvania
boch
melee
##heric
countdown
##atched
regina
evoke
assad
genentech
newsom
meddle
outperform
fallon
##azin
insert
startling
remake
deluge
##gled
raising
telemark
webber
handler
productive
ante
edit
edvard
concili
belated
imbal
gerard
patty
midrange
specter
##legiate
publicize
ibrox
succ
linz
packet
famer
transit
transcript
humble
apollo
underlying
massively
thinking
darwin
badgers
goalt
superv
ipass
##ospheric
messina
messier
crimson
malaria
panasonic
muster
roadway
ramon
freak
awake
woodgate
hyp
raines
rainbow
thriller
waiting
friendship
burger
cruz
cruel
supremo
##etti
floodwater
ambulance
villanova
jimmie
wrongly
optimize
unlaw
somebody
holyfield
bloated
beside
container
ethical
gym
fatigue
stereo
savage
anthrax
authorization
kezman
trailer
combatant
stephan
azeri
nicot
crypt
piston
cdma
lakes
recruiting
refinance
catholics
daniels
dragon
bailey
durham
durban
##iably
mitsui
steamy
cosmodrome
botch
longhorns
dimension
imagination
rfk
reconcil
diaz
downturn
pavel
boldly
scarce
unconfirmed
folder
paralyze
tremendous
lavrov
bruno
deterioration
hazardous
scholarship
delighted
obviously
##konen
mobiles
nordic
forbid
mechanic
mechanical
fulfill
privatization
orchard
cnbc
alejandro
hokka
troubling
dormant
wwf
mansion
dixon
winfrey
golov
inacio
thornton
toler
inhabit
crusade
homosexuality
relegate
pronounce
dazzling
klein
voyage
defenseman
mystics
disqualify
dulles
algor
conjunction
uruguay
supern
spearhead
azzam
caucas
nanotechnology
wasserstein
hasselbeck
qassam
negligence
machinery
karmazin
##atriate
foresee
schwartz
kandahar
nathalie
sisler
trusecure
raikkonen
edgerrin
trevor
sardinia
telemarketer
cookie
dos
fah
gund
henn
howell
ji
jitter
lanc
lark
mik
mandal
mapping
ost
pel
panc
paw
puls
punta
rhe
rix
ripe
sear
sake
sift
sara
tut
tornado
vs
vista
vhs
ws
wack
wik
xer
yom
yun
zayed
##sol
##sfield
##rid
##rine
##rank
##iar
##pensive
##ying
##fk
##kindle
##wag
##dc
##uh
##uction
##gern
##bie
##bag
##bok
##jad
##jev
##eries
##onia
##onics
##onkey
##anu
##inqu
##arin
##enh
##esda
reju
rekindle
##omic
ingram
##isoft
ston
stalk
stitch
##olia
##edski
##idable
neb
neville
##cho
comedy
chast
chatter
##usp
lev
leop
shipper
##astown
##ulge
compel
unins
unset
unsure
sperm
anhe
plume
enig
##ppy
alley
seh
incon
forens
##aga
clint
inters
interact
intermedi
perp
perceive
winemaker
finn
grin
##ivision
##ailable
##ounding
##rub
##assion
toast
##hnin
joanna
blago
disability
hey
##ashenko
lax
##lov
euph
##iza
flier
weir
weave
lique
carpet
##gression
boone
evander
bankroll
works
sharehold
##shell
##shaw
centrif
imply
genn
terrain
infos
parma
mediation
coloss
whack
##ithm
##oute
inspiration
abram
##alka
swipe
japans
known
russias
wellpoint
armitage
canucks
sharer
edonkey
drugs
formidable
returner
acting
westbrook
sportsman
faroo
economics
futility
angu
##eshold
solomon
trooper
distress
schoolchild
inval
harb
paid
##suite
loa
simulation
simmons
este
mck
valuation
foodland
modem
suspense
richie
emergence
##unted
purvey
wounded
crimes
multif
arafats
janj
facto
heartbreak
macc
##fitable
suffocate
##umbling
cyn
squander
widow
protective
threshold
audiot
alexei
modeling
bondholder
racer
rapper
henkel
differently
ventura
deriv
fiasco
craven
pensions
faced
virtue
renewal
viab
viable
uncond
logging
pairing
materials
narc
springbok
epo
burnett
rapids
butch
spinoff
honest
cybercrime
tribes
brewery
piper
gorda
accidentally
ahman
##rella
sloven
condemnation
willingness
crocker
reignite
klm
elliott
ecb
prescribe
rename
padalka
hornet
kazmir
gambler
albertsons
gibson
gregg
restatement
puzzle
lukashenko
bashar
alarming
culminate
waiver
bpd
calculation
bancorp
umb
scrutin
inexpensive
pigeon
somali
historian
croatian
koskie
rudy
##lifting
roaming
meadows
divest
poulter
zhang
removable
nablus
excellence
enthusiastic
khalil
jessica
bethesda
frightened
rusedski
absentee
vizquel
zoom
candidacy
leagues
juggern
moldova
avalanche
racketeer
sakhnin
nixon
confederations
derrick
falsify
enclave
beneficiary
unprofitable
pandemic
prosperity
jiabao
luggage
holmgren
xserve
ljubicic
misdeme
borders
bledsoe
kewell
maritime
maradona
scrimmage
flotation
bochum
imbalance
goaltender
reconciliation
hokkaido
supernova
mandalay
##jevich
rejuven
forensic
blagojevich
schoolchildren
purveyor
audiotape
juggernaut
bax
bachel
cake
cull
cfl
cuff
das
eman
eating
eston
fey
fable
fusion
gum
gag
gaze
haj
jelena
kbr
lud
lager
mow
mell
mural
ncs
seld
tpc
vt
vfb
wow
wism
yawn
yoko
##ooping
##nar
##swan
##rating
##aqu
##cing
##cam
##curate
##psy
##hr
##hic
##hall
##ml
##kick
##ded
##gold
##bly
##je
##onna
##inist
##arl
##arro
##aram
##arie
##orox
##orrent
##stable
##strom
##itis
##lei
rethink
##isy
stain
stade
##ilion
##etica
##ecipher
##igorate
##edad
##edral
##irsol
##chin
##chair
##chma
chop
prod
##ophy
##imael
##ounge
levi
shwe
shakh
excer
exanta
complement
unim
plaint
##allis
quash
quarant
##ineer
alta
incarnation
##aget
clutter
clorox
intercontin
maraud
peirsol
tuber
##osei
recipe
bluff
discharge
heid
sunlight
micron
laund
dayton
oral
##aval
preced
precar
pregame
crank
liu
carc
retrial
ismail
setup
maz
maui
microscopic
champaign
##shirt
centric
infest
medtronic
whopping
##ansa
##code
swit
swinge
gucci
ascent
knot
redempt
depose
##lessness
sanch
sanct
tribe
olympi
upright
washing
postwar
overdue
##aweed
costello
##bev
edmonds
dating
suborb
spew
morgue
##class
breakdown
davies
tellier
harden
domen
discourage
afghanistans
hariri
litter
novo
organism
booth
analytic
martyn
undercover
mailing
privile
modification
tyran
danforth
crimp
sharpen
amidst
veil
techie
panhand
disposal
baltic
vermont
andrea
andres
macworld
afflict
younis
squash
staffer
branding
natwar
sentencing
fraudster
environmentally
burg
burlington
sexson
optional
mutineer
pires
##hyd
argos
garret
khurs
lufth
ulmer
ulster
dominating
thomastown
sonic
englishman
logger
rupture
shroud
munis
scotia
springboard
kuchma
ladder
textbook
bottler
tszy
infrared
authoritarian
dunlop
scorch
impressed
nepali
sabre
mayorga
mirac
kimi
trickle
netherland
mandr
unwrap
unwilling
abdicate
marginal
magnate
venetica
furth
farmington
##stars
syndro
cathedral
##abilia
consolation
cropp
married
sociedad
memorabilia
mateja
liquidity
bono
juliet
gaud
domainkey
cautiously
nagaland
jamaican
altoid
dependent
certification
mickey
there
etc
mahmud
rashid
steering
harrigan
pavilion
wrestle
ronaldinho
sluman
henderson
tedford
##strip
kirkland
sherman
brunei
minimal
incorporated
jurisd
comparable
robbins
dioxin
imprisonment
bouake
blanket
looting
alfred
bulldo
bentley
reciproc
mentally
jesse
piero
skepticism
tbilis
indecency
vizc
algerian
##enoord
hapless
bulldogs
kieren
seismic
dislocate
tantal
gritty
mishap
zambrano
recycl
fiorina
nicaragua
trilogy
ubisoft
unabated
impairment
tweak
pupil
inappropriate
charismatic
sevenspace
mongolia
terrapins
knoxville
radioshack
drogba
tandem
conciliatory
nicotine
mobilesoft
golovin
wacky
stonecipher
anheuser
sehwag
centrifuge
janjaweed
derivative
slovenia
umbrella
racketeering
baxter
bachelor
feyenoord
wismilak
excerpt
quarantine
intercontinental
suborbital
panhandle
lufthansa
syndrome
jurisdiction
tbilisi
aig
aest
axim
aka
bake
bitt
crom
dare
dye
dwar
einstein
fas
fitch
faint
gle
giving
ht
hens
hanson
horde
iam
jfk
kde
lv
ler
lect
mct
mord
mund
mba
nacho
pie
pond
ration
rake
ratt
sz
sop
tuss
tah
tang
taw
uconn
vector
vicious
wiki
wesley
wifi
yhoo
zafi
##nut
##eus
##eenth
##vency
##pable
##het
##hack
##hens
##yder
##fight
##mor
##mian
##main
##wi
##zhou
##erica
##anza
##inos
##arc
##ored
##orce
##alon
##alone
##atieri
##ittery
##lech
reeb
reagan
##enture
input
##isimo
stard
##etrack
##acola
##ecy
##asur
##asbourg
##terra
comrade
##otely
##unct
##utely
devers
##ople
##imeter
##ouncer
shod
shannon
##ulus
spre
plight
monk
##emi
##fts
alcat
alumn
##ardi
##iei
##ipt
interrog
perm
peril
marl
induct
moyes
trough
agni
admir
grouse
##ilet
tufts
beast
correction
##amps
##ampoa
internally
disbel
coke
##quarie
frill
sunw
sunrise
earl
##oodle
precise
preference
carp
defoe
##xton
groups
grouping
isle
backyard
runway
mafia
ames
poe
stealth
##shop
strangle
strasbourg
technically
whirl
whampoa
outstrip
abimael
homebuilder
schering
swat
remotely
##athi
majors
hitler
relocation
##undai
allied
armen
armoured
cannes
emmitt
footing
antic
firebrand
##beit
submer
subdue
standalone
midship
virender
wirelessly
##onte
debit
debacle
farina
fourball
divorce
invesco
cardiff
harbh
shortcoming
braun
autop
##olved
feast
darius
mccar
mcgu
valid
walsh
idec
administer
semp
glut
accountability
loudon
grandson
clearwire
threatened
ivorian
classify
respir
respite
unveiling
##affected
jerez
##hani
civic
macquarie
salute
specialized
##ifty
mystic
mustang
notably
sauber
berg
bearing
lifting
##echai
screw
monte
roller
##ajan
betamax
snoop
koose
hyundai
playoffs
layup
##player
sexy
colorful
closet
counterterrorism
nonstop
toughen
##mune
henri
argonaut
garb
rulon
bollywood
philippe
posit
rescind
destiny
crewman
logan
jaco
sanderson
sheik
airborne
cyberonics
##keeping
tsv
petrova
ashburn
vaunted
unsafe
faisal
cartridge
kimber
installment
abdication
rafah
winged
collaborative
ntp
gorge
farmland
synth
##abilise
sarat
mccants
lobster
atmospheric
daiei
##theon
engagement
digitize
characterize
precision
gambro
unpatched
rashad
rasheed
jenning
festive
bombardment
psychologist
reassess
lamy
diversity
##angled
faithful
kenyon
resurrect
resurgence
bahrain
bcn
vinatieri
untouch
depressed
lithuan
rusty
reluctance
masked
orbital
passionate
mlb
relaxed
rebellious
hobble
hobby
barnier
incompat
immune
pulse
catastrophic
herniate
vanderb
vanderlei
terrified
berkman
nicholas
winfs
contamination
chandra
brockton
humiliation
fertil
kayak
vertical
carnival
tibetan
gnome
stagn
censure
relevant
absolute
molecule
pessimistic
giul
fibre
transparency
enlargement
gizmo
syndicate
##uzzi
goodenow
purchasing
giddy
ominous
lauderdale
intraday
namibia
penguin
pensacola
indemnification
succumb
algorithm
caucasus
xerox
leopard
gennady
colossal
viability
misdemeanor
##swana
shakhtar
plaintiff
laundry
switkowski
redemption
sanchez
tyrann
khurshid
muniswamy
bittorrent
mcteer
mordechai
tussle
reebok
alcatel
alumnus
disbelief
harbhajan
aq
ainge
ayl
bhd
boulder
bumper
cb
cj
cant
cisse
dro
hort
hann
jc
jid
kv
lub
miy
ogo
pall
rmc
sce
sally
somer
sikh
tate
tipping
tinker
vu
vap
wit
wom
wee
wreat
wana
waver
yawar
##nan
##sity
##sight
##ezza
##aque
##vc
##cash
##horse
##hafi
##mell
##mund
##wo
##wiki
##dra
##uchi
##grown
##bat
##bollah
##anz
##anigan
##anthrop
##inav
##aru
##arat
##arion
##aring
##enity
##atlant
##icable
##esn
##esp
##itory
reub
##elong
stup
stoop
stmicro
##ilian
##asis
##ased
##edness
##irai
##rious
neer
nestor
chim
chocol
##uspect
##usanne
##akers
##raj
##unu
conce
##andinav
##estep
shen
shep
shred
shalom
##istically
##ctuate
##orted
##astore
exert
##ulatory
compuls
unav
ander
anarch
envelop
albeit
expend
interbrew
perv
perry
periph
trinity
aggression
leadoff
grinstein
scandinav
pew
reck
joaqu
blend
accum
coy
cohen
fratt
lausanne
##ensed
earmark
##izzy
orang
flamb
governors
premin
preacher
cramp
##vely
netsuite
netrating
carne
ende
ameris
isa
means
profession
countless
softness
ministers
##outhi
amanda
amjad
steward
##share
impot
strat
mayfield
stockbroker
confuse
getafe
##ahi
suppress
soder
abst
homegrown
swagger
barren
barometer
palme
trav
##odes
relish
telemarket
handover
##omba
##heit
##health
##angular
postage
detract
##aflop
continuous
costume
unions
##beau
avenge
##arket
pitt
##clair
mercos
fargo
englands
metz
futur
politics
angola
geiber
despair
basically
radically
severity
famously
housew
receipt
peacefully
investigative
transf
transatlant
##atherine
broadsheet
harper
harbour
personally
humor
##ovsky
intelsat
landfall
feist
taxus
##agoza
torri
badawi
idf
idiot
motorist
semit
##oleezza
challenging
deng
checker
chechens
pleasure
turning
feared
premarket
##arma
panther
coastline
##queira
jermain
germans
##burst
andover
junqueira
salle
islander
condoleezza
tread
devin
easing
finishing
appealing
##even
envy
irvine
optus
lightly
legalize
calvin
groundwork
downloadable
utes
worrying
pacify
staffing
better
kingpin
rainer
##gaard
##mob
lockyer
arche
archiving
totmian
asianews
commercially
chew
racetrack
homicide
statue
theor
welch
chelsfield
celebrated
abuzz
khmer
vanunu
dodd
renewable
pharma
bully
banda
unexpl
##aulk
flashpoint
shaft
solidarity
varsity
silverman
ratings
menace
spirited
alternate
nicky
letterman
resistant
feedback
weightlifting
freddy
oliv
##ebra
unwind
latv
zaragoza
dining
simpson
koda
recruitment
heroic
unhurt
marcello
hdtv
dissolve
emotionally
rotator
jamaal
llp
jaret
altogether
vivisimo
ralf
assigned
meteorologist
hijacker
denny
buoyant
clustering
intrusive
bailout
surfing
efficiently
lavar
convergence
resurface
innocence
dupont
astonishing
incredibly
barghouthi
furnishing
vigor
supersonic
hayden
strictly
tanz
geminid
fiercely
gilberto
filtering
alfonso
##bbing
anchorage
coincidence
illustrious
inaccurate
macedonian
tolerate
coronary
utilize
siberia
accurately
penetration
irrelev
relegation
morpheus
drubbing
nazar
alamos
friedgen
philosophy
kasuri
refresh
fonterra
livelihood
blistering
renovation
yanukovich
translation
troublesome
insolvent
rcmp
ziggy
surgical
inflammatory
paterno
mimic
assailant
vintage
chapel
lippi
pascal
immortal
beverly
pattani
mismatch
larkin
infosys
farooqi
multifunction
tribesman
seldom
carcass
sanctuary
domenech
cromwell
dwarf
iamgold
leroy
##ecycle
sprewell
respiratory
jennings
lithuanian
giuliani
aylwin
reuben
stupid
stmicroelectronics
chocolate
peripheral
flamboy
preminet
netratings
telemarketing
mercosur
geiberger
transatlantic
totmianina
bn
bolog
bates
bunt
cc
cage
caf
cbi
cede
cusp
doss
dorse
eer
eto
floy
faulk
gau
hee
hale
hath
herr
hbo
henne
hodge
iw
iz
iger
jag
jema
jittery
kut
kau
kios
lame
mul
mesh
masc
nhs
nifty
pim
rs
sj
sig
sib
saw
scept
tatter
vuel
wlan
xx
xeon
yass
yaw
zaw
##oel
##oos
##table
##tex
##ease
##vous
##had
##hous
##frog
##mus
##kke
##dafi
##gi
##zee
##ergy
##ergen
##inction
##areness
##orf
##stander
##leen
inland
##elly
##elcome
stur
##acaf
##asant
##asuna
##amis
##amiliar
##idamb
##irer
##ires
##geo
##gee
##gear
comed
comtex
chan
chilling
chidamb
##oway
##atemal
##earns
##utta
dew
conco
##immune
leather
##estory
shiv
shosei
unload
spurn
spouse
anat
ande
qure
quint
quiz
ens
##emann
worsh
##iao
alh
alonso
##artisan
incur
##abble
##about
goose
mari
##udder
arun
arson
arrog
aramis
winky
winery
moises
tract
agi
brass
grate
peach
beware
cork
reclusive
appropri
blunder
blizz
heather
cobal
coden
##ductor
timely
##quet
##quist
##quelle
annal
phisher
##oush
decorate
attain
prized
cray
sylv
wariner
cars
defection
rox
ism
backstroke
##hero
countries
serviceman
mahdi
##atche
amro
amuse
evangel
steak
imposition
biggio
genre
newsweek
##inawa
countrywide
nob
computers
demographic
outscore
outclass
##ahid
soas
soda
insecurity
abl
reminis
guatemal
smbs
redeem
##ibles
relaunch
proving
israels
searchable
##angirai
overd
powered
talking
cutcliffe
continually
refueling
putter
##atero
edd
concacaf
subside
subaru
muj
muham
muammar
immers
proposition
patron
acton
specify
sendo
keys
mora
ibf
teller
francorch
bask
radler
pakistanis
doha
philanthrop
distinction
realignment
receiving
transitional
transmet
broadhurst
harrah
fieldhouse
##supp
appears
angelos
##nex
##hama
underage
underwater
estim
safari
californian
superhero
astana
##ippo
tyre
richter
tomlin
errone
blackout
blackmail
pullback
manually
classmate
malt
juven
juergen
dispose
macau
macapag
magist
salis
condolence
affirm
travelocity
##umbo
irin
freshwater
oneill
artif
cyp
cybert
telecoms
limbo
combined
utd
predomin
paceman
identical
readie
awareness
koala
wildcard
plantation
karstadt
trafficker
oaks
advancement
santoro
dutchman
reasonable
herb
skydome
##sidestory
craze
raytheon
scottie
okinawa
luther
veterans
shocked
livermore
peddle
bronson
truckload
fairway
cooling
flawless
misuse
misunder
sidney
sidestep
similarly
kufa
tankan
spectacle
ladies
batista
anthrop
unfamiliar
tunis
cleaner
pretend
physically
redskin
##ezvous
bystander
fasher
unwelcome
latrell
breathing
lauran
czar
pyram
jaynes
lifelong
afterward
julie
boring
calmly
toutatis
##boat
dissent
shelton
frost
botswana
precursor
inspired
havas
junkie
accuser
variation
diageo
lobbyist
twisted
wolfpack
lukas
chanting
lambeau
molina
attendants
ayman
theatre
nadu
ordin
bmg
dynamics
kostya
vinny
dupe
reinforcement
solemn
romance
mobilize
deceive
occasional
warranty
albanians
mechanism
injection
sevenfold
configure
ossetian
bridges
whitney
uproar
privatize
solicitation
hokies
baiji
appreciation
terrific
dormitory
bunker
www
hansen
wanderers
addictive
chevy
rusher
djib
straits
fertility
aeronautics
algeria
fratello
alvaro
censor
absolutely
nursing
iaaf
rendezvous
exaggerate
distinguish
hesitate
zapatero
baffle
spartans
aggregate
akhtar
phenomenal
gruden
accustomed
flintoff
infertile
astrobi
kohler
orchestrate
hakim
yonhap
prominence
cahill
hustle
kamal
noguchi
tiffany
liquefy
scrutinize
lagerfeld
privilege
tszyu
domainkeys
reciprocal
recycling
hensley
##lecht
shoddy
positively
faisalabad
kimberly
saratoga
untouched
vanderbilt
wreath
stoops
neergaard
anderlecht
frattini
carnegie
soderling
olivier
irrelevant
flamboyant
bologna
dossier
dorsey
floyd
jemaah
vuelta
chidambaram
worshipper
blizzard
cobalt
codename
francorchamps
transmeta
macapagal
cybertrust
karstadtquelle
pyramid
avent
awe
bore
burr
bicker
bsky
cel
cac
cto
cairn
canton
dt
dice
doll
duc
dumb
doting
dpa
duma
ely
eiff
ewood
ebers
faw
gud
gino
gagne
hid
hul
hemp
henson
hersh
ig
ios
jt
kra
kag
kite
keller
led
lost
llo
lod
lang
mt
mear
nost
nitt
nico
nano
nih
ply
pia
pounce
pina
piet
puff
rave
rousing
sow
sip
sah
sahar
tidal
vist
wester
wick
yak
yacht
yoran
zetter
##nc
##tucket
##san
##race
##ege
##vol
##cope
##pay
##pit
##pole
##lical
##hir
##hati
##ybe
##fs
##muda
##kit
##kenn
##dot
##dler
##dox
##uis
##gang
##zing
##bra
##bee
##jak
##just
##arazz
##arthur
##alis
##stick
##stead
##atu
##icing
##esent
##escent
##iti
##ionage
inad
inroad
stoud
stenson
statham
##acons
##asi
##asium
##oly
##ames
##ades
##idel
##chle
chick
##owok
##ako
##raham
prow
deacons
##osium
##andi
shank
shiny
##isted
##ffer
##ffarin
##eehan
##ulence
##ulently
spook
plaza
##emire
uss
##ryl
seas
incons
##anyol
##usty
##ourse
##abies
offend
##ipov
expatriate
##ured
##osti
##seys
##ondo
trous
agony
manif
adoles
gru
scsi
##ilepsy
peuge
toil
toilet
reported
##ousy
markko
##avan
eleanor
preach
prius
warcraft
netany
defunct
##anco
conseco
retract
bod
boer
statewide
slope
poke
workflow
##mex
termination
teresa
##cony
infidel
mediate
outburst
##ahl
##wayne
abductor
saleh
schr
schny
giveaway
longstanding
##ertino
elections
remedy
asda
##athers
delicate
traw
##oda
raffarin
webcam
websidestory
allardy
allocation
goodale
goodison
goodyear
##angling
##perfect
cupertino
##aimi
hostess
footwear
sharipov
presse
##ushu
eddy
concord
singles
##dez
goldcorp
legion
morgant
##click
forefront
versatile
contracting
writ
wrath
wrangling
pakistans
baseline
koreas
wallabies
realise
realty
invasive
##oka
##okil
##people
appleby
pau
novar
booby
applause
obl
drunk
simona
daring
##redit
mcnam
locally
walgreen
behave
torii
mailbox
fastball
ips
##exaco
doubleclick
dana
dangle
cleansing
antique
sooner
##vertently
robber
baldon
balcony
pollster
anders
jumping
devour
civilization
silly
irina
bermuda
bearish
bookmaker
groundbreaking
journalism
awami
snarl
snyder
fraudulently
karen
##nyi
temp
wordperfect
limitation
##eldon
##ductive
citrus
pounding
boxboro
##askar
homo
poorly
stats
stature
screener
welter
debutant
doubles
chelms
##ystems
integrated
commonplace
preventive
boliv
espionage
espanyol
##naire
##naissance
earthquakes
progressive
catz
bulge
ruiz
madonna
##panzee
##opharm
materialize
penenberg
patiently
misrepr
greeks
epilepsy
kyushu
butler
sleeve
savor
brewing
##rontexaco
gymnasium
nicole
##piring
unsuspect
mirnyi
birthplace
olowok
bridgewater
pathan
rafik
breather
triumphant
intensely
maple
acceleration
sarg
kilogram
kilkenn
equalizer
baird
fortunate
fortunately
lifeline
bonanza
gaddafi
pumpkin
bedroom
listener
bloomington
livingston
visionary
gigantic
dynasty
uphill
dedicated
jared
akin
bruins
sleepy
damper
metrostars
leapfrog
reconstruct
reconnaissance
symbolize
outpitch
neighbourhood
scared
plateau
toddler
gangster
teaching
ribbon
calcutta
makybe
watert
untapped
stalinist
##blower
torrent
ftse
deception
hawaiian
upstage
##build
alienate
gemstar
infiltration
muller
incomplete
motivation
ranieri
caddie
salesman
lennox
bjorn
cordless
intimidate
cherkas
polycom
nedved
skulls
gavaskar
paparazz
##aganza
frightening
chevrontexaco
adwords
sympathy
symposium
contrace
miaa
##connect
wyatt
vertebra
vibrant
intrigue
leaguer
dazzle
saskatche
aberde
fascin
upsurge
molecular
biblical
distinguished
hasina
stimulate
jubil
chalabi
retaliate
extravaganza
tavarez
telefil
legitimacy
yamaha
ernst
poaching
mistakenly
ineffect
nastase
ojiya
razor
##chemical
aboriginal
energize
gamecube
bungie
lurk
bipartisan
tinsley
reloaded
lefthander
intermittent
pawtucket
loaiza
esteban
daschle
mellon
yokohama
thereby
rattay
midshipman
sempron
argonauts
jacobs
tsvangirai
fertilizer
kvault
chimpanzee
unavailable
endeavor
palmeiro
futuristic
feisty
latvia
gauhati
kiosk
andean
muhammad
tomlinson
juvenile
astrobiology
aventis
bskyb
eiffel
ebersol
llodra
saharan
inadvertently
stoudemire
trouser
peugeot
schnyder
morgantown
baldoni
chelmsford
misrepresent
unsuspecting
olowokandi
kilkenny
cherkasky
saskatchewan
aisle
bav
bible
bait
buster
bmc
cic
came
dense
dakar
dolly
dusk
eilat
five
gir
gim
gale
gfi
goli
hant
halk
hush
hoff
hatt
iter
jj
jal
jost
kr
kop
kga
kasp
lice
luster
lousy
mm
mello
mouss
null
numb
ngu
och
ome
oath
ogun
ought
oasis
pager
pfe
rerun
ss
sog
tm
tid
tact
tcu
vm
vou
vuit
vocal
wail
wern
waf
xi
xaver
yul
yuri
zal
##ofi
##ride
##rater
##ritional
##eaval
##vial
##iator
##cor
##cup
##comb
##hm
##four
##mill
##watcher
##dm
##upp
##ermo
##anas
##arthe
##array
##atur
##atus
##atum
##league
##rew
##root
##robe
reilly
##omical
##isely
stutter
##etus
##acerb
##ecess
##eche
##ambi
##riad
neo
neat
chil
cherry
chef
chiao
##ows
##owl
##owed
##very
proxim
connex
##anded
leasing
##ested
shaw
shudder
##mental
exh
exacerb
composition
complim
unans
unsc
unres
unsch
spurt
spansion
ana
anew
##iceps
pluck
quart
##apest
##apper
enzo
monica
monstr
##emo
alain
seet
seiko
##aino
##ained
forsy
offline
##antically
secre
resent
resounding
winsl
moor
##onds
bray
adb
adhere
gris
scant
scary
scint
##anke
pep
peja
beet
beacon
apples
appease
minh
##asset
##hnsen
blur
blare
blower
blazer
bludge
##rowicz
disarray
heels
frantic
frantically
sungard
annus
markdown
deco
decry
##verness
##avo
flank
flutter
flavor
eleven
carlo
carbo
deflect
defector
deficiency
governmental
roche
polo
unitedhealth
conserve
iseries
mehdi
backfield
backbone
##herst
sling
slur
##ologically
amare
ambev
amherst
poacher
intimate
noranda
impat
teraflop
paragu
demoral
whiz
falls
yorkers
auck
##azaki
insp
abort
homework
schu
sched
schne
swan
callvantage
palermo
majestic
redist
redshirt
heady
headwind
sanofi
##ulla
brode
upi
lowly
overflow
selloff
cutback
cups
deterr
armando
canoe
canister
emil
emmons
gretz
extrater
beatles
wiret
generali
imcl
avon
##lines
patric
##ontologist
merrim
merseys
holt
metric
wrench
writing
starve
geopol
storefront
acquittal
visually
strikeout
fani
portability
rebels
hargrove
stepanek
litre
humph
novosti
couns
loop
loong
analyse
marta
aparthe
landon
downfall
darin
voeller
mcco
mccl
mcgee
##itti
speeding
amphib
questioning
questionnaire
liken
accountable
millwall
grail
urb
richt
messman
denis
sprout
blacksburg
throwing
ivy
banana
antiqu
premise
cashman
activision
blocker
malign
malabo
copenh
dispar
polluter
pollute
heartland
verme
treacher
myriad
fraught
frazar
##efore
irfan
credible
involved
livestock
caliber
bookseller
shotgun
symonds
drivers
cpi
awash
natick
rainfall
entertaining
pilotless
budapest
measured
mutt
muted
pirated
husky
spying
herbert
##arrazi
garen
kharrazi
reformist
voicemail
##uites
ringleader
sonoma
subscribe
ronnie
shakeup
bernanke
logistical
bandage
constitute
promptly
maddox
undo
undated
##iotic
flashy
advantest
ache
bloomba
mozambi
prag
nikol
nlcs
burner
spinach
bottlen
ruben
plunk
instructor
trendy
toshack
examiner
cleanup
hangover
ratio
nicol
feeding
lindsey
bypro
liquidate
persia
bertuzzi
diameter
democratically
overseer
mahar
marginally
ntl
gorilla
illini
dinara
farms
innovator
daniela
modernize
unused
breeding
victorian
##folk
gallacher
lifecycle
##johnsen
clarity
convertible
scammer
giggs
horna
rotate
upheaval
precisely
rhino
##worthy
advisors
metrodome
therefore
rentokil
hijacking
categor
sequential
nugent
bakery
fabio
intrude
##oticed
waist
mediacom
pleasantly
matthews
bustle
obsession
valentin
sheriff
loretta
paradox
dupl
municipality
astonish
scholarly
sinclair
griffith
indymedia
diagnosis
cooking
mixture
occasionally
hsien
congratulation
thoroughly
hobbit
coxless
whistleblower
reunion
molestation
prohibition
cameraman
wobble
ethiopian
##ourable
oblige
mentor
brigade
lonard
densely
##akesoft
alpharma
balkan
marquis
vibrate
spoofing
consciousness
gabba
phonak
carnage
firefight
rationale
placid
kiwi
eidur
tamada
wherever
perfection
biased
gillespie
kwame
unnecess
unnoticed
refriger
tasmania
lambaste
arrowhead
blinkx
seminoles
##umatoid
interpretation
rivet
radek
cognos
peacem
antibiotic
lecce
pronged
adrift
duffield
stojak
protracted
hologram
tolerance
inhabitant
fahren
rheumatoid
##ranked
intersection
euphoria
abramovich
invalid
springboks
fabled
unimpress
daytona
precarious
##hydrate
vizcaino
lecture
submerge
garbage
hobbyist
stagnate
tyrannosaur
miyazaki
tippingpoint
conceal
compulsory
expenditure
pervasive
amerisuites
impotence
abstract
archeologist
unexplained
vigorously
xxx
zawah
comedian
mariucci
grateful
eddington
salisbury
artifact
djibril
dotinga
gudjohnsen
westerner
manifest
netanyahu
allardyce
welterweight
sargis
aberdeen
fascinating
jubilant
goliath
halkia
kgaa
kasprowicz
soggy
vmware
voucher
vuitton
xaverian
connexion
exacerbate
compliment
unansw
monstrous
forsyth
winslow
carbohydrate
auckland
brodeur
gretzky
merrimack
geopolit
apartheid
copenhagen
treacherous
mozambique
unnecessary
stojakovic
ather
aunt
bac
bak
biel
biod
cum
cvs
dion
dant
dough
dund
dime
danton
drown
dassault
eke
eco
eich
esk
etch
fuss
foma
fao
gw
gull
graft
gape
gaut
gels
gabe
hh
hect
hoe
haired
jill
jinx
kou
kink
kipp
kana
mesa
nons
nasser
nabil
oy
rost
rican
ranc
rings
roush
sque
sicken
tir
ux
vague
vind
wich
wagon
zid
zag
zah
zanu
##tree
##tale
##tech
##vre
##vir
##vill
##vigorate
##iker
##cuff
##pri
##pies
##low
##hone
##fix
##fano
##mac
##miller
##kw
##dong
##dock
##greg
##zapper
##jarat
##onial
##onica
##aric
##enet
##aton
##ateral
##icant
##lem
##rep
##rod
##rose
reint
inund
inhib
ingen
inverness
##eling
stolz
stearns
##acio
##asite
##amer
##amic
##idan
##rimand
nept
nester
chaba
##owitz
##akos
##earm
##uti
##utive
conceive
##andum
##imura
thess
thirst
lester
shat
shimb
shove
shahe
##ffiti
##astair
exelon
##eele
##ulin
unru
unocal
uneven
unranked
##alla
quar
##apult
encom
enfor
monrov
monroe
moniker
usd
##iag
aloft
alastair
suha
sele
##ainian
##ustre
##agt
##agh
##agel
##anto
secular
##berus
expedia
resonate
reprimand
teher
opium
agence
briny
presum
presume
admire
adnan
grueling
##ankovic
##ivel
corv
##ounder
recap
recru
atkins
appreh
##orkina
##achen
tok
heyer
cobb
cobble
##dup
sund
playback
planemaker
laury
##loch
orion
##erness
commute
attrition
##eye
preston
pricey
carre
defib
roil
roth
boon
boister
meps
descent
miles
regis
evan
workgroup
capello
intuit
steppe
impetus
newsgroup
medimmune
collegiate
noisy
confound
confession
confection
confisc
whar
whisky
outfield
outplay
##itharan
technologist
abol
abusive
abraham
schia
swivel
bark
remon
guo
gujarat
asc
travers
headset
courtship
relic
federally
##urrence
breaker
brekke
developed
allocate
crest
handoff
handcuff
launcher
postgame
oversupp
##ichi
##otherapy
canter
putting
grebb
sharemark
extingu
pressing
hopefully
evenly
belo
img
avid
instinct
##leye
billow
pitfall
metlife
metcash
##iffer
needle
##ismo
populate
strauss
ibms
distort
invis
invinc
##scra
##screen
shortlist
humiliate
frenchwoman
drm
##inski
florent
greatness
undersea
underperform
energet
feas
##uka
##ukh
mcen
walpole
safina
safeco
torment
idol
goalie
goalsc
superpower
morningstar
##ijn
glitter
millau
sidekick
graffiti
urgency
files
grandfather
almunia
tomjan
turismo
##flower
##dais
personalization
malnut
camar
##ketch
struggler
focal
entrant
robinho
westerners
sugiy
suggs
pollen
verb
##burger
magpies
skit
skirm
skilling
collateral
##eval
##evil
##eduled
frail
parkhead
nymex
##attack
legality
squibb
squabble
osi
##spin
##annah
arsenals
wilderness
##fors
thrilled
protestor
wording
cheet
budge
nonconference
biopharm
##roller
platoon
hallmark
independently
curl
fledge
##swick
##innie
relations
cascade
integral
garam
renege
khorkina
vacate
derive
fiesta
crab
facial
okay
philippouss
tenuous
subsidize
smarty
vulgar
unlv
pedestrian
catapult
bulger
##eryl
jacqu
jacque
cerberus
munro
sandra
blogge
epc
craigsl
donaldson
disclaim
varied
romano
gyur
ladainian
collectively
cyberspace
mountains
stere
slashdot
stunned
dubious
menlo
titanic
##jani
reinvigorate
savannah
chemotherapy
plunder
lyric
revolutionise
maurit
sabres
sabmiller
unsold
##aliya
registered
matrix
francesco
encouragement
fencing
ignor
pistol
lynx
swingman
fashionable
gilm
sargs
heroin
heroes
instrumental
mccart
dustin
memorandum
durango
galloway
pinstri
julia
soros
ultimatum
felon
reno
giga
proliant
manhunt
manhasset
##rillator
gambhir
correctly
naming
stingy
unchar
ironport
silvan
##vicius
shakesp
cheating
pleasanton
deserved
obsess
bpi
##content
sheridan
brunswick
##committ
lori
makoto
hoos
consistency
pontiac
fundamentally
toxin
incredibles
visualization
lesb
leslie
deadlocke
##proof
dirrell
maxis
jbpm
pixel
glasner
stubble
nutritional
ofdm
hayes
kellen
starkville
hawkins
obscurity
gemini
teem
jabaliya
pestpat
bridis
bridgest
sweater
wilkens
pulitzer
elevated
drummond
ghostzapper
dugway
esco
hokie
winnick
towel
adequ
lampert
ispat
prolonged
csfb
morales
tucker
ljung
bourdais
deafen
ridiculous
carbide
nazis
vitamin
nursery
weblogic
electronically
baldini
mannheim
infantry
bibby
mummy
uptick
hoddle
lnm
mizuki
uncomfort
dignity
dignitary
jesus
perpetual
##grading
retaliatory
guangdong
reproductive
mountaineers
newfoundland
resilient
eritre
arraign
confusing
navigator
incompetence
bureaucracy
cottage
xiaoping
unsuccessful
fabrice
vinci
supervise
hennessy
pellet
pancreat
anguish
maccabi
emanate
muralitharan
miraculous
mandrakesoft
gaudio
stranglehold
autopsy
horton
accumulate
tanzania
hathaway
mascot
amusement
ablaze
reminiscent
guatemala
relaunche
immersion
magistrate
hempstead
lodging
nostal
piazza
pinault
gruesome
boerse
schrder
telefilms
iteration
ogunleye
wafer
chilcott
unscheduled
secrecy
beetle
bludgeon
extraterrestrial
vermeil
muttiah
pragmatic
byproduct
duplicate
fahrenheit
unanswered
geopolitical
bielsa
dundee
gautam
koubek
kippur
inundate
neptune
nesterenko
unruly
encompass
enforcer
monrovia
teheran
recruiter
lauryn
defibrillator
boisterous
confiscate
sharemarket
tomjanovich
malnutrition
sugiyama
biopharmaceutical
philippoussis
sargsian
shakespear
pestpatrol
bally
bosh
bapt
cf
cun
dol
dort
dud
dold
dude
dio
dans
dizzy
emin
ego
fay
fad
fizzle
fsb
gd
gome
gwr
hue
huss
htt
ith
iome
jn
jl
jeep
jaff
kig
kad
kast
kry
kamp
kens
kraw
kroll
lour
mav
mey
nac
nip
nude
nah
nipp
neri
por
pam
poo
pcl
pench
rue
rij
ses
sall
sany
sierre
sizable
tik
tadic
vest
vain
vfl
wu
wax
wyn
yelena
zard
##oz
##nick
##nail
##tail
##taking
##sdale
##santo
##rada
##eers
##eira
##ais
##aid
##var
##cake
##count
##corn
##post
##pedo
##ll
##hub
##hma
##yland
##fg
##fest
##fishing
##mation
##kward
##kova
##wilder
##uity
##uke
##gon
##zic
##zied
##bish
##jack
##jab
##jada
##jazeera
##jagt
##erc
##onville
##onholm
##anic
##antha
##inj
##inium
##inness
##aret
##arco
##oriously
##enas
##stay
##atan
##itu
##oughn
##iona
reins
revert
##elo
##isance
stink
stod
stanton
##iles
##ilate
##ildup
##etitive
##acing
##acete
##ecret
##amine
##adze
##ednik
##irrel
##thia
##thood
nex
##chner
chili
chrome
chimp
##raught
##unya
progn
##utaka
dexia
##opedia
##imori
thy
thens
thales
##ounced
leip
leahy
##estine
shing
shai
##ffe
newborn
exuber
##ulated
##ulously
compression
compaq
unthink
univision
unaffected
unjust
spears
anom
##alling
ency
enrol
monter
monsanto
##ineken
worst
##fta
##ppes
##illating
aljazeera
years
##artis
sepp
seym
forman
##endicular
clan
interl
interpre
reside
peregr
perimeter
going
teeter
tejada
##mph
finjan
##ifa
##ifier
indeb
firsthand
tram
agra
agere
brash
brunt
##olden
adage
adew
leaders
gronholm
##icky
scent
scrub
pean
weeks
weeklong
bef
beak
beers
bewilder
corus
corning
corrid
contamin
##hne
##hnet
##kele
heave
heineken
##asha
##ashtra
cove
##actice
sunil
sunflower
takeoff
lazy
annul
decay
daylong
##izai
orger
orissa
orlov
##manage
##manuel
attanas
airasia
airspace
elevent
prist
weaver
bucs
buildup
cran
crans
crump
crescent
carney
caravan
roe
uniteds
retri
boomer
teams
openpower
##herd
##ulty
##ultimate
sliver
slender
rundown
maier
microscope
evap
centrist
centenary
norfolk
impart
terps
terabyte
##ussian
infield
parry
parasite
noel
whal
britons
outback
fallen
systematic
suppan
##azia
abkh
sword
barbar
barrera
guer
traumat
redund
headway
deprec
reliant
relinqu
johnston
##urrent
chiefly
webmaster
strew
brooke
allstate
alltel
triangular
crematory
quicken
##heug
overboard
powerless
detector
refute
refuel
reflection
emlyn
emmanuel
electroc
##practice
anto
antig
firestone
windy
subs
subtle
strongman
imager
imoh
freezing
singlet
singtel
seng
patil
midair
midmarket
actu
speculator
numbers
##clopedia
forehead
##ressive
holly
holoca
tellabs
wrinkle
globalization
angler
##eshow
radke
pastime
mainstay
fanatic
distaff
uks
rocker
harley
novartis
##ovych
charitable
##bride
drone
flores
understate
underwriter
informed
##tsville
mcman
superdome
threatening
emerson
purple
turbo
fearful
personalized
janus
defending
influx
replicate
robredo
dispos
##affe
verheug
macs
waterway
magical
junction
skier
skilled
spoken
towns
toolkit
figur
saul
artistic
spamme
cyt
##unga
bere
machimura
squirrel
cald
combust
booker
osman
helix
copycat
mortal
##banes
##ajev
awkward
sniper
snooping
wildcat
golfing
socceroo
happily
audacious
##ircle
burk
burton
burks
astronomical
rodent
colored
tearful
homage
statistical
platinum
hallowed
carolinas
encircle
heras
skyscra
lotus
##maar
storyline
saddle
brim
villain
originate
pacificare
destabilize
ringed
ravine
pharmac
fluid
fluke
fluvir
haitians
bullying
pageant
constitu
madh
penultimate
wilco
wilbur
existing
ethics
romanians
##genband
hpq
jonas
misty
quezon
revered
absa
tsmc
mrk
rubin
reinvent
enhanced
keizai
venezuelans
lymph
hassle
feedster
mayoral
byu
##zyme
dogged
persian
accidental
functional
extremism
mandaric
cds
gala
noticeable
crook
sarbanes
adjacent
mccull
albacete
oxley
licensee
ecological
listening
naples
precinct
deduction
fiddle
ovation
rhp
lendale
micky
muddy
ukrainians
rebuilding
##iyo
psychiatric
bleidt
wolfgang
##respons
wrestler
bogge
unconsc
otc
pillar
lacklustre
sailing
populist
catalogue
catalunya
bootleg
unseen
consistently
breathtaking
lexington
deadlocked
romney
thumbnail
convinced
vigorous
prestige
stubby
bottled
boutique
mcgill
artificially
spoiler
gurkh
frenzied
kalam
turbulence
elevator
stelmar
bartolo
vanderjagt
bentonville
nuisance
dixons
unease
trenton
entitled
oswald
utterly
featherweight
hutchinson
minerals
crusader
diluted
stymie
gabri
urlacher
taekw
autonomic
stagnant
hapoel
relevance
seismologist
disqualification
overstatement
cockpit
transparent
hoogenband
hodg
tulsa
viduka
spartan
renovate
yanukovych
fitzg
sobering
howl
barneys
extravag
resilience
eritrea
lorenzo
boller
alkmaar
fiancee
lundberg
yeah
supervisory
erratic
tiebreaker
cultivation
pampling
pulsate
nebula
enigmatic
intermediate
perpendicular
sportsmanship
harbinger
cynthia
unconditional
heidfeld
mazda
argosy
bulldozer
tantalizing
##aloniki
stardust
armenia
gorgeous
shepherd
envelope
scandinavian
detractor
transfusion
herring
nobutaka
cypriot
predominantly
burress
kagame
meari
nihon
pieter
visteon
mcnamara
##building
paparazzi
contraceptive
cicada
moussa
omega
yuliya
quartet
grisly
scintillating
inspiron
scheduling
merseyside
amphibian
maharashtra
tyrannosaurus
dantz
wichita
zidane
thessaloniki
shimbun
presumably
tokage
carrefour
wharf
oversupply
energetic
mcenroe
camarillo
garamendi
craigslist
disclaimer
pinstripe
gigahertz
lesbian
stubblefield
bridgestone
shakespeare
doldrum
diode
gomez
iomega
kastor
krawcheck
lourdes
nippon
penchant
sallie
tikrit
unthinkable
encyclopedia
seymour
interpreter
peregrine
indebt
adewale
beershe
corridor
orgeron
orlovsky
attanasio
eleventh
abkhazia
relinquish
holocaust
verheugen
skyscraper
gurkhas
taekwondo
aon
ahl
bum
bender
cort
cary
coward
ccia
catherine
dm
dmit
douse
died
dhl
eck
fs
foudy
faget
gec
gul
gine
giv
gough
gpr
gush
glee
hig
hab
hous
hark
haze
iress
ironic
jou
jard
jardin
jumbo
jankovic
kb
kot
komb
lace
lans
lense
lament
lounge
meek
mular
mellor
ng
nate
nld
nile
nass
nino
nosed
oem
osh
oven
oled
pg
pax
picket
pinn
pelt
pawn
ppc
pages
qw
qan
rag
rude
rca
rumbling
sre
ssh
sich
sind
sax
ssl
socket
sketch
tian
tft
tory
tangle
vandal
vett
was
wong
wigley
waca
xil
xeni
yous
##och
##nat
##tr
##ext
##evelop
##vation
##iom
##cul
##cock
##crow
##czy
##pour
##lit
##lich
##like
##hetic
##fruit
##first
##mh
##mish
##mount
##mese
##mother
##kes
##wd
##warm
##uw
##glo
##gwood
##zn
##zbollah
##bial
##xpo
##erus
##anxi
##inable
##aris
##arged
##oru
##orest
##stellar
##atil
##atable
##atility
##ayeva
##iche
##itably
##itivity
##ouin
##rek
##rept
##rolet
reinc
inception
inbound
##elm
##elman
##eliver
##isit
stos
stair
##iler
##ilot
##iland
##etano
##ecue
##aset
##asley
##igid
##olin
##vein
##river
##rians
##rimon
neon
neagle
##chen
##chool
##cherty
##chka
chron
##usable
##owment
##otes
##unas
prostate
prodi
prostitution
##utz
dept
degen
conag
##andle
levein
##essen
sheehan
##istication
##lder
##ctad
exche
##ulu
compress
composure
unification
unstructure
unesco
unctad
spine
spiel
spasm
##uman
platter
##aptor
enm
enroll
encode
##ocese
##emon
usp
useless
worse
worship
##arti
##ardell
sev
sexton
##ieu
inca
incap
forearm
##ellick
##asek
##agers
##aburn
##abody
cloudy
clusty
claburn
offensively
##ipro
##ipedia
##bern
interstellar
perse
perkins
goer
acrimon
marcos
repris
seri
sergin
arlen
ops
moet
moth
ager
brouss
manual
manito
adore
adverse
adaptor
grat
grady
scurry
peel
peabody
wedgwood
##ptv
atrac
##orkovsky
minut
minardi
bliss
blatter
hex
hezbollah
cov
timoth
friction
frito
franz
frigid
microw
micah
playmaker
playbook
plano
makeup
##ensen
phish
decree
decker
##inty
days
##izhan
##mania
flav
flarion
buena
cron
syl
libert
monthlong
defrock
deforest
endowment
consign
boff
boys
isv
mehm
slid
amy
amgen
poker
pods
workload
intran
##shake
##iesburg
surrept
mayhem
##ussia
##usscan
parish
median
militancy
node
computerized
helpful
soa
##azion
schwe
baring
longs
guinness
asa
aslan
majerus
dealmaker
trait
trauma
smucker
##odorkovsky
redevelop
headfirst
stripe
courts
##ibo
relat
payday
sanpa
wayward
revolve
allergy
trivial
handbag
upstate
##heiyo
lowry
posture
overload
overfishing
overcrow
##minster
armonk
armchair
refoc
electrif
##ranos
antiter
greco
spaceport
belly
bellev
mulder
nasas
##loyed
##lined
midseason
keeps
viral
virusscan
reston
##iversity
billup
publicist
debian
##goer
##downe
farc
cao
caetano
placebo
allowance
starg
geological
##ughn
packed
poppy
popcorn
dok
docherty
divulge
##dych
distraught
rockie
realign
##otted
discredit
orderly
harold
##kerman
jeb
tarn
sudans
hummer
novl
organized
controls
centerpiece
##ikes
applicant
api
obiang
dres
droughn
yardage
##byte
downright
taxable
##ikevicius
southernmost
listless
torres
##apeut
ipaq
embl
embolden
asthma
bowen
glitz
linuxworld
modular
problematic
filly
filesh
messy
messagel
petrino
##weaver
augustus
tomko
eventful
blacklist
emery
greenland
popularize
malpractice
multilateral
camel
connector
whitewash
inflow
inflame
trainee
pottery
coaster
lefty
heartache
civility
salizhan
condo
affection
toolbox
favourable
bluegene
notoriously
irl
jetbl
nykesh
freshly
holidaymaker
lighting
##cribe
berdych
practise
calder
bookkeeping
osasuna
helen
downloader
flyer
hundredth
##annou
rollback
##ajima
betis
betty
betray
awesome
cancun
millionth
lars
laredo
representation
securely
archie
samantha
andreessen
burmese
funnel
irelands
conditioner
conditioning
reasonably
raptor
hui
curve
importantly
rowdy
taiheiyo
herron
hermann
carla
khodorkovsky
cracker
dangerously
pensioner
auctioneer
ideology
##carlo
fluctuate
prospectus
painst
pediatric
referral
logical
madness
fairy
munc
munition
scots
drape
shaanxi
penthouse
pentathlon
groove
epa
ebbers
variable
penalize
educator
silverstein
trustee
menacing
cloth
ruble
rubbish
petrochemical
desertion
cassell
languish
trendset
scorp
##rika
assassin
ceremonial
lindh
##glio
sticky
gardens
gardena
persie
vietnamese
inquirer
megi
bradford
dickau
duval
mariner
remarkably
warmup
##ofrio
sophistication
laurence
consultation
unemployed
consolid
sars
sarajev
sarunas
bharti
mccardell
dictate
fleeting
graduation
ellen
rosneft
bedford
tobago
##kaard
chaunce
characteristic
##ievable
barbecue
kazinform
riding
craftsman
##aroneck
jarvis
heights
liberalization
methodist
therapeut
ironman
observance
skinny
stirring
mbna
bengie
puzz
denney
foolish
hartson
lamont
rimm
preferred
joyce
belarussian
bailiff
thunderstorm
fingerprinting
journeyman
kurds
yugoslavia
minimize
defective
rioting
fujimori
watersh
unseede
untested
##ilingual
isolation
breaststroke
icq
maskhad
enlarged
brooks
fundamentalist
rehire
exceptional
omnicom
overheating
##logic
boucher
stranding
epicenter
bristle
defiantly
contradiction
alcoholic
privatisation
pulp
kerik
boilerm
repayment
cherie
incitement
minnow
keenan
jasikevicius
maneuvering
brigand
tajik
redeployment
contradictory
dixie
lampard
nichols
ruthless
joschka
peso
chevrolet
sympath
counseling
nemeche
codec
scrappy
coroner
coronation
sagem
bourque
zoellick
stylish
irrepar
dreadful
cornwall
backwards
alvarez
perfigo
renowne
aggravated
alameda
pessimism
daddy
avalon
clampdown
babson
seamlessly
swathe
gladly
marek
videsh
##angelo
aggregator
meshnet
mashburn
guangzhou
troublesh
cesare
hindi
lovie
bilbao
cougar
kaplan
grapefruit
mountaineer
adversary
fnm
kaneb
##uchova
arraignment
abundant
abundance
glamour
nigel
indirectly
supervisor
ponson
wiggins
ecstasy
giancarlo
tacit
belatedly
unlawful
cryptic
ostens
wikipedia
chastise
unsettle
shareholding
estonian
olympiakos
gleam
lvmh
sopranos
tawhid
interrogation
carpenter
anticomp
incompatible
aqsa
anarchy
orangut
stewardship
traveller
bnp
iwata
sceptical
shivraj
qureia
appropriately
roxio
overdose
estimated
hershey
nitties
seaside
inconsist
writers
bolivia
watertown
ineffective
hantuchova
hoffman
hattiesburg
nguema
unresolved
braylon
impatient
paraguay
deterrent
patricia
disparate
bottleneck
zawahri
biodiversity
gelsinger
hhg
kanaan
vulgarity
jacqueline
mauritania
uncharacter
adequately
ljungberg
cunning
dortmund
http
jaffray
kigali
kampala
kenseth
rijkaard
peanut
retrieval
evaporate
antoine
imagery
singletary
disposable
unconscious
diedtra
ginepri
gprs
iressa
lansdowne
mularkey
sichuan
##czyk
conagra
exchequer
unstructured
acrimonious
reprisal
serginho
broussard
manitoba
timothy
podsednik
intranet
surreptit
sanpaolo
antiterror
bellevue
droughns
jetblue
nykesha
sarajevo
chauncey
watershed
maskhadov
boilermakers
nemechek
meshnetworks
bard
biss
biff
binary
cern
ceat
cms
dd
dum
dong
dung
dys
diy
dwayne
fell
fester
fta
faze
hock
hone
hull
hogan
if
iq
jm
jeline
jvc
ked
kue
kang
kady
kallis
lum
liz
lup
lidge
mk
mech
mantle
ner
nol
nand
nock
naw
nurt
nancy
nahy
nesn
naimi
oq
olimp
pore
pnc
somber
tatt
tusc
uair
udin
vr
vc
vw
vor
vine
vip
vex
vivid
wt
wan
wast
witt
wither
wamb
waugh
wemble
wolves
za
zined
##nual
##number
##ndez
##tur
##tie
##tles
##tedly
##sf
##scl
##rar
##rated
##aux
##vone
##vision
##vyn
##iology
##city
##pf
##ped
##lis
##lio
##hot
##hop
##hire
##fu
##fam
##fra
##mona
##kind
##kinton
##wk
##dl
##dart
##dling
##uro
##uhl
##uquer
##git
##gado
##zhan
##bin
##bach
##bath
##anity
##anov
##inous
##inished
##ormer
##oraro
##ste
##start
##stant
##sticker
##atical
##atta
##atunga
##icol
##icacy
##icensed
##esaw
##ites
##itech
##oug
##lewood
##reach
##reira
##roid
##roach
rehn
reyes
##entz
##omph
##ominate
##elan
##elch
##elcom
##elka
stout
stuck
stove
##acchi
##ecc
##ecoop
##iggle
##uru
##adur
##idi
##idas
##idman
##tering
##irky
##rip
neal
##chal
##chup
##chitz
chester
choppy
##usic
##owska
saying
##raged
##ottle
##unit
prover
delete
deena
deuba
deere
##ops
##osely
##imone
thug
lefors
##esse
##estinal
shacht
##isto
##ffy
##ctrine
newark
exor
##ulo
compose
unner
unpl
unfit
unintend
unknow
unorth
unstop
spc
spru
pry
prso
anz
anelka
ploy
quark
quadr
quetta
quirky
##ianne
##ocap
##emps
usability
##illac
alge
seater
seesaw
seimone
forc
forgo
##agi
##endon
##ended
##abet
clob
perish
acron
marques
marcia
##ostic
arco
##sein
tek
tease
teod
teix
moe
tran
trillion
brat
mania
mansl
mangled
managers
##ocks
##older
grudge
scorn
scoff
pepp
peasant
##ivate
worlds
bevan
bekele
recur
##amper
##amphet
append
##achowska
mint
tod
joan
blond
discontent
##ashi
coax
##activity
timor
fridman
gameboy
playlist
announcer
##ousine
decon
decider
orin
##ernity
flap
flanigan
preempt
pricewater
satoru
warwick
lib
##velt
netgear
parts
retool
##rosion
isupp
##derot
meager
openly
backcourt
maze
##aved
evict
workshop
workhorse
stefano
##shield
##shares
impassion
impecc
strzel
infight
countryside
medgy
holdscl
englewood
outc
outnumber
sob
##azy
abate
abound
##ooting
schl
scholes
schiller
gugl
guenter
gubern
asem
asif
forcefully
##athe
delh
smear
smother
redirect
redoute
relive
reliably
stateside
statesman
paypass
##iams
sanath
halsey
webex
sportsticker
##omero
bret
reval
allure
creak
handshake
quicktime
override
##after
industrys
emulate
emmy
electrol
mobster
footprint
elk
elaine
firepower
firewire
greed
edgy
submission
subcommitt
belch
believer
beatify
muk
imlogic
consummate
singing
singular
formulate
itxpo
avary
patel
filemaker
midtown
##ontin
westward
restoration
debil
davita
farce
telling
cavern
videoc
lining
popup
doe
doctrine
twx
twent
domachowska
invader
failing
##otte
##otti
discord
##peak
##peace
##peaker
jeer
healthsouth
designation
martz
##brun
yarder
judging
florence
##negy
lander
iranians
taxation
##office
##redict
vole
mcbride
safra
listed
moses
torry
islamiyah
##attering
superst
superman
supercenter
ample
bowe
glide
applications
##anez
graves
urine
forecasting
louds
grandmother
petr
petty
petacchi
denise
sprinkle
atlantis
errant
erstad
blackstone
blackrock
greenpeace
classy
classical
##ribly
##oona
##ooni
vein
malden
camara
##linger
panis
juicy
whitehouse
projector
potter
introduct
weaponry
verification
williamsport
arsne
waterfront
magma
juncture
salam
regulators
justification
treble
devot
devolution
devotion
parkinson
crowton
figo
irrespons
sepang
lived
saic
saur
artic
spamming
directive
squelch
sufferer
limousine
utc
##value
width
awry
awaken
brandi
natalie
snocap
koch
wildfire
##forest
murky
hygi
archer
donofrio
bloodbath
forwarding
ivanov
tempo
friendster
socceroos
blaster
happiness
chewing
burke
birdstone
circus
detergent
compliant
nonpart
exporting
##ettler
documentation
curator
curios
momentous
caroline
rowan
rowhani
benz
roommate
conflicting
frankel
##innon
industrialize
garment
garrison
siri
excav
khalif
derrek
sadness
scottsdale
differentiate
##elsmann
cabin
caborn
posh
dreamliner
kennison
sonny
unlicensed
painter
pedal
rueter
soundtrack
suitable
fairfield
pencil
scotch
sheila
narathi
husseini
melissa
harmless
harmison
siding
marshal
established
solidly
##jaya
hurriy
vikram
mountainside
bottling
franchitti
tsx
mrs
authorise
lucious
doorstep
rigorous
unfinished
saturnian
beckon
iceberg
ratan
vaughn
adamant
gmbh
weightlessness
dogwood
mirab
francesca
components
persecut
bertelsmann
haaret
rafsan
charlottesville
lateral
##agonist
netsolve
triumphantly
venge
amazingly
furor
furiously
##aloosa
volunteers
methamphet
acceler
printemps
senators
cheerful
cheerleader
horrible
jayasur
streaming
streamcast
albuquer
##ptonite
lifes
mateo
clarification
oxfam
honorary
desperation
julio
borg
borussia
felipe
sainz
napa
chancery
dwango
psa
cosmos
riddick
leno
precip
dimarco
ovarian
provisioning
customs
rhodes
poisonous
dampier
masood
masquer
evolutionary
hopkinton
thermal
axis
skew
adjusted
irony
stampede
mathew
matheny
##rande
meteorite
bengal
festivity
stonehill
psychiat
blemish
pavin
elements
dieter
registrar
lukewarm
hauler
diaper
diocese
urgently
culinary
nowak
chamique
stiffen
tremble
undersecret
bestow
coordinated
simplified
bahadur
aluminium
airespace
manipur
verdasco
ponte
lunchtime
mamaroneck
concerted
templeton
mecca
tumour
umts
chamberlin
slimme
wristwatch
torrid
riverside
grimace
woolmer
adventurer
imperil
fisheries
starkly
obscenity
sasaki
barnstable
literary
homestand
gilbertson
wetland
reunification
bandwagon
miscue
cadillac
txu
wmt
orchid
softening
toothp
cnf
steadfast
satisfying
##williams
stelios
boiler
colourful
hyperion
hernndez
ketchup
bathe
cherish
polymer
temptation
brigades
khaled
exclusivity
rabid
rabbit
confinement
##hofer
exhaustion
exhausted
csco
collarbone
diminutive
wyoming
fijian
clamor
clamart
clamshell
granite
pegoraro
revitalise
bourse
dreaded
gpu
konrad
fratton
staunchly
constructive
unfortunate
vigilant
kirchner
newfangled
gossip
whereabout
irritate
morrisons
renegoti
purnell
scouting
crippled
multimillionaire
disgraceful
dynegy
hoopla
upturn
##iotta
uruguayan
nhk
baffling
nunez
paleontologist
korzhan
clerical
clergy
agonising
translator
syndication
cristie
insolvency
courier
sicilian
tavares
boundary
radeon
rechargeable
unrelated
whisper
whiskey
incorrectly
shovel
marblehead
antibody
neurontin
confused
harassment
navigational
incompetent
ioannou
mantra
##ghness
tiebreake
cultivate
ecstatic
reimbursement
dawson
hypert
unlawfully
stephanie
lancet
yunus
haji
ncsa
mundane
tangible
bearingpoint
scei
somerville
vapour
##sightedness
coyotes
checkered
sjberg
##housecoop
concoct
ensue
arrogant
tractor
corksc
erroneously
herbicide
misunderstanding
anthropologist
nicobar
plymouth
infidelity
outpitche
jostle
nullify
ochoa
neatly
schuettler
schneider
mcclaren
urbina
antiquity
nicollette
unimpressed
eichel
reintro
shatner
selector
abolish
schiavone
ascension
canterbury
invisible
goalscoring
skirmish
epcglo
gyurcs
escobar
uncomfortable
hussain
kryptonite
zardari
##eload
stoddart
anomaly
trammell
guerilla
redundancy
subsystem
mcmanus
lymphoma
kombat
paxil
pinnacle
qwerty
qanooni
vettori
stosur
enrollment
microwave
deforestation
mehmood
overcrowded
refocus
billups
stargazer
muncie
scorpion
consolidated
orangutan
surreptitiously
bissau
biffle
jelinek
kuehne
kadyrov
nurture
nahyan
oqo
tattoo
tuscaloosa
udinese
wambach
wembley
zinedine
rehnquist
shachtman
unintended
unknowingly
unstoppable
clobber
teodoro
teixeira
manslaughter
pricewaterhousecoop
isuppli
impassioned
strzelczyk
medgyessy
holdsclaw
gugliotta
gubernatorial
subcommittee
loudspeaker
hygiene
nonpartisan
curiosity
narathiwat
haaretz
rafsanjani
methamphetamine
jayasuriya
albuquerque
masquerade
undersecretary
korzhanenko
epcglobal
pricewaterhousecoopers
aet
aur
aus
apt
bst
berry
bingham
cly
cag
cute
dess
doo
dah
dla
eure
ebook
erect
eweek
ewing
eaves
fass
fod
fuzz
gon
gmo
goma
ginter
gaul
gbyte
hk
hound
hier
hector
heter
hca
hello
hasan
iptv
jour
jailed
kre
kase
kud
kale
kaw
kef
kinn
kvs
lil
ling
loman
lille
ledge
lingu
lsb
mce
mates
mitt
miscal
mna
maka
nr
nina
nds
oz
odom
omen
ping
pong
pint
pout
pony
pomp
qur
rn
rv
roc
rukh
sia
sard
sapp
sfa
ting
tad
tice
tart
tiv
taper
taur
tao
vet
vag
vga
vimp
vornado
wad
wav
wey
waj
yong
yosh
yoga
zak
zip
zama
zero
zito
##ohn
##neck
##tling
##titte
##som
##soft
##sicker
##rh
##rish
##rint
##aic
##vich
##iqu
##cence
##pv
##pg
##pic
##lain
##liss
##lton
##lane
##hile
##yun
##faz
##fica
##fense
##mach
##minton
##korian
##wor
##wright
##dan
##dain
##drive
##gone
##zig
##zigh
##bons
##belt
##bulla
##jes
##jury
##eria
##erman
##anon
##anis
##inch
##inib
##arine
##arland
##arium
##orable
##enf
##enic
##enzo
##stmann
##atin
##icott
##level
##levard
##lezigh
##rogen
##rogate
rect
reeve
reusable
##omi
##omme
inuit
##elar
##isite
##isystems
stash
stool
stok
stabilise
stottle
##ilh
##ilst
##acles
##ecap
##ecard
##ascar
##iga
##olson
##urd
##urri
##adu
##adio
##adkov
##edt
##edin
##idue
##idant
##irth
##thon
##thro
##riety
neve
##chino
ches
chiss
chapp
##usiness
##raine
##rajaya
##otics
##uno
##unter
depp
condu
constru
congreg
##oser
##osity
##andestine
##imer
##imen
##imos
thir
leo
shall
shack
shaul
shamb
shallow
##istar
##ffman
newt
exeter
exterior
unb
unap
unass
uneth
unbel
unreg
unaware
unstable
spo
spx
anab
anja
##iceon
plank
plax
plaud
##aps
ensh
usenet
##pps
##pped
yearlong
seab
##ainen
fors
forstmann
##agos
##agascar
##abri
clot
clie
clott
claus
cliche
clandestine
expiry
expulsion
residue
perjury
acura
marid
maroney
reposition
serbs
arc
wins
finner
mogae
mofaz
##ondale
trench
triton
mani
manc
mankind
prescott
preschool
##ishly
grunt
grilled
##iva
beasley
cory
corral
##pta
tuesdays
frivol
atlet
##achal
minsk
minmet
##ruw
internazion
bloss
##ubu
disob
disdain
##oller
##ersley
accenture
coh
cob
cozy
##quan
fracas
fraser
fradkov
gameplay
lahi
##ensis
##ensohn
annetta
decor
decomm
decode
##loat
##izan
orn
oracles
##maneuver
##management
##avit
##aventure
commack
flout
flames
prelude
primate
weathers
buj
crutch
satan
sys
warp
warship
netcraft
carri
rove
partition
##adeh
ended
endicott
retton
bofra
isot
isdell
meb
desha
##alev
backfire
slave
afrol
afloat
maest
nights
##reatment
amves
workman
intu
champs
##shan
norris
norwood
impede
terra
termin
businesswoman
infinity
pari
parsons
paraph
parrish
medica
noor
novice
conform
whilst
britney
outmaneuver
topix
yorkshire
##wayo
helpless
##coe
##azon
abby
citys
citywide
showroom
scha
schiz
schae
swank
baram
longwell
remod
asx
ascend
aspen
##athom
delist
delux
delonte
kneel
##ronas
headphone
##iba
##ibel
##ibus
##ibund
russa
relapse
payload
sang
sanchar
teleconference
testaver
wellesley
vii
revisit
brocade
allot
upsw
##angie
postrace
overly
cutter
efficeon
octop
lookout
canary
beckett
refine
ember
emach
emma
emulator
emusic
##prit
eln
antis
antawn
putrajaya
sharons
spacey
datac
##indi
##gettable
passer
passive
imi
##alyk
singulus
formality
avis
avaya
midlevel
legged
instigate
knowles
londoners
billerica
##clusive
##govina
faraway
foursome
##solete
metaph
##ifford
wriggle
matchday
driveway
needy
needham
linear
diehard
dov
dove
doak
hardliner
famine
strahan
domini
realplayer
schoolboy
discounter
transp
transco
transcend
hamburger
##ocrity
paes
paige
humve
##ovis
organizing
##ikov
obsolete
autograph
floresi
iranmania
thinker
downtime
downpour
dario
darleen
mcgin
mcwilliams
validate
validation
humana
yanks
hotbed
torpedo
badminton
superl
supergen
superstore
fasting
ballard
##ija
bowel
glare
glue
##aneous
##ipped
filthy
earths
pettitte
petronas
davidoff
toms
stadler
eventing
blacks
blackhawks
banish
fearless
dambulla
flightless
mald
malik
multitude
multisystems
connors
voltch
volatility
##riere
copier
##affar
jamison
ballet
jerzy
localize
andruw
macdonald
macarthur
watery
salomon
condor
condomin
collude
devoid
silk
affili
afflu
suffolk
irb
jett
madritsch
saif
tracker
bowls
limb
cubans
combative
osdl
ramanna
spotty
##anned
wideload
awhile
woodbridge
walking
awarding
karnat
laro
larsen
##forge
royce
hypo
securepoint
frontline
blooded
temasek
##ync
layout
##elden
##eldorf
hotelier
##iscopal
citation
seriousness
tearfully
eyeball
conditionally
mutiny
nonchal
dismant
homes
biography
biennial
theod
hillside
griese
favored
ventures
carlisle
skywatcher
victimize
doctorate
insistence
songwriter
murderer
cracked
sadler
refugees
faculty
posada
strokeplay
tenet
heatwave
veterinary
origami
navarro
navistar
kashmiris
destabilise
sonia
sonics
sparks
bulky
jewell
logitech
tackler
irishman
madagascar
undoub
undeliver
fervent
##ophile
##myre
##obic
##royuki
sands
feehan
shaath
misgu
beaching
melode
melvill
marshfield
episcopal
kyiv
similarity
sensitivity
burnout
##ddi
ticketing
splend
viking
fatally
fatality
sleazy
absurd
savour
drinker
trailbl
graphical
dune
dungy
lionel
aznar
hangar
pretoria
pretrial
huntsville
hunsicker
vaio
lindows
unsub
unsecure
respondent
maturity
gardez
sterne
megastore
cdn
mahat
immense
tendency
shanahan
magnier
loyola
venice
furl
laurie
tailed
mccown
impropriety
exploitation
bonaventure
mitigate
tempered
intentional
felic
felton
sainthood
dissension
coffer
shadowy
gigaset
dedication
akbar
liberalize
gibbons
unpredict
mbp
offshoring
midsized
psychology
bleary
wolfensohn
hazy
geneticist
yellowstone
nfld
nashua
arkalyk
renaissance
culmination
culprit
hawkeyes
mediocrity
pleasing
nervously
kanoodle
usefulness
refereeing
dupuis
pontiff
maximize
wardrobe
bancshares
gatwick
aggies
woeful
stalwart
sincer
##written
brilliance
maxime
harshly
loudly
nordstrom
inevitably
grassroot
barclay
paralympics
hawkish
tanja
suspiciously
plains
archaeological
boulevard
ruddock
upwards
hiroyuki
kurdistan
sdbot
##matched
kalou
ransack
wolong
interceptor
cameron
eyet
weisel
unauthorised
pearson
kerri
kerkorian
herndon
nafta
shameful
outdoors
googles
interoperable
bunny
mentality
towers
scenery
mansour
hosoda
nicholson
papa
papua
glenmor
gonzaga
thorny
dorman
fictional
chandler
monarchy
coddle
laurel
fontana
alpha
alphabet
fevered
utilization
balkans
purely
horrify
dilute
mussab
reyna
reinstatement
biode
neuros
pronk
placing
leonidas
vigilante
voyager
druyun
##brenica
welshman
zeeuw
cavalry
hashemi
youhana
philosopher
mumm
scalp
seamless
grammy
disturbing
synchronize
derrida
lnr
mishandle
unreason
uncommon
candlestick
contextual
sampanis
recycle
tiemann
ardent
ardmona
wiltord
sicily
surgically
odalis
sharmba
ernest
courageous
hastily
shoes
moreover
nigam
unforgettable
adriatic
guitarist
windsur
ferencvar
ehud
izzat
##retched
unsuccessfully
fabrication
entrenched
koval
kovalev
inboxe
botched
dimensional
levante
unsettling
inconven
shareholders
mckinnon
narcotic
rejuvenated
ncsoft
tuberville
tahoe
synthetic
womens
joaquin
housewives
semitic
kauffman
sibling
yassir
sturrock
evangelist
tunisian
censorship
krauser
prowess
ipsos
cameo
gimm
pagerank
werner
seethe
imclone
waistline
riveting
gwalia
squeak
shaheen
corvallis
invincible
stereotype
deafening
pancreatic
baptist
sanyo
leipzig
pristine
crumpler
impartial
barbaric
electrocute
antigua
cytec
constituency
madhya
wilcox
mccullum
gabriel
fitzgerald
beersheba
srebrenica
sindelar
xilinx
yousuf
boffin
relativity
emblazon
painstaking
trendsetter
therapeutic
ostensibly
anticompetitive
inconsistent
ceatec
kederis
olimpico
unorthodox
spruce
quadriceps
forcibly
acronym
infighting
delhomme
introductory
khalifa
hurriyat
mirabelli
vengeance
accelerator
toothpaste
corkscrew
gyurcsany
aurora
fodder
fuzzy
kasey
keflezigh
lomana
mateschitz
miscalc
makaay
stottlemyre
chissano
chappell
constructor
unapolog
plaxico
plaudit
clotting
finneran
frivolous
atletico
blossom
lahiya
decommission
deshaun
amvescap
medicaid
schaeffer
deluxe
testaverde
upswing
metaphor
dominique
voltchkov
condominium
affluent
karnataka
undoubtedly
melodeo
unsecured
grassroots
glenmorangie
ferencvaros
keflezighi
are
avery
boc
bose
bies
braw
besh
bula
bpo
bacon
boca
bouncer
bemo
cign
cog
cech
corder
croom
cmc
dn
daj
dado
dental
dwa
dns
dancing
erosion
fx
fru
fount
fuse
feline
felt
fizz
gin
gel
gong
gros
gins
gta
gaffe
hic
hester
hert
hines
jig
jude
jaim
jark
jds
jelly
kip
keral
kild
kib
kamil
krill
kinder
kitten
kddi
lm
lade
lual
lcs
lurch
lizard
looter
mest
mena
mlad
mamb
mears
molt
mih
nis
noc
ngc
oler
oats
pec
pity
palk
peep
pne
pector
pbs
porch
rj
rant
rife
racy
ritter
soo
sons
sderot
tc
tl
tint
uw
uma
vom
vand
vca
vahid
wb
wra
wah
womb
weld
wada
wapping
wipro
yo
zy
zire
zog
##oit
##oice
##oitte
##nu
##ti
##toum
##sand
##song
##sica
##saw
##sley
##swe
##rt
##rary
##eim
##eecap
##aday
##iens
##iating
##ienne
##cation
##cular
##pi
##pd
##pak
##poon
##pindi
##lt
##louse
##laus
##has
##hra
##hart
##hong
##hof
##yaf
##fc
##fil
##fund
##fortun
##fied
##fisted
##member
##max
##moon
##meyer
##mastore
##kal
##kast
##wen
##uth
##upper
##gel
##gia
##gust
##zl
##zier
##zyn
##bing
##bling
##bara
##bayeva
##jin
##jing
##juel
##jeeves
##xny
##onc
##aney
##anasia
##inen
##instal
##inbayeva
##arb
##aroo
##orah
##enburg
##enisa
##alan
##alanta
##alpindi
##stwhile
##stuhl
##aty
##atra
##atore
##atiable
##ayne
##iced
##icative
##esch
##esova
##itative
##itism
##leep
##lehem
##ioner
##reb
##roa
##roma
reit
reis
reag
rework
regroup
##enthal
##entiful
##omatic
##omobile
ingr
##elight
##elift
##isel
##isively
staging
stocco
##ilage
##etect
##etical
##ecq
##ecma
##asville
##asaki
##igi
##oland
##amed
##adle
##adel
##veen
##irious
##iriyah
##thick
##rique
##gem
neiman
##chise
##chhofer
comerica
chern
chep
chanda
sayako
sayyaf
##oten
##unc
##union
dee
deme
deja
##opp
##osing
thesis
thistle
lew
leyland
##essa
sherry
shockey
shuja
sheldon
##ortment
exqu
##ulant
##ulloch
compt
composer
unann
unrival
unicom
sph
spim
spars
pricy
pritz
anad
anoint
anemic
##umen
##umbur
##umann
##umonia
plucky
plaque
plentiful
##apatt
enrage
##ocative
##emost
users
worris
##ppard
##ppner
##iainen
alu
##artin
##arex
sepr
sega
##aina
foremost
##anyi
##ellan
##ustein
##ouring
##abir
##aband
clown
##mert
##merse
##ipur
##antom
interchange
interval
intercol
resell
resusc
percy
pertain
godd
marys
reprocess
armin
arjan
winchester
finuc
opforce
indulge
indicative
mover
moammar
moamer
trond
trample
bride
adolf
##igne
##isha
##ickland
scold
scav
scupper
##anki
##ivu
weekday
bead
corel
cornel
corsica
##aila
wedge
contempt
aty
atalanta
##orkman
##acha
minus
toit
token
blight
blush
blument
bluster
##ubo
displ
disgust
##olla
##ollen
hebe
##ersburg
accoona
coven
coding
timer
##quito
frisk
fringe
playground
highland
laett
php
phantom
marker
marked
officiating
decomp
decathlon
decatur
decibel
##integr
dayer
##itionally
##izen
commend
flung
floppy
prim
primit
weinstein
crust
cradle
netcom
networ
governments
roi
##lander
##xtronics
retry
bovine
iscs
isiah
isinbayeva
measur
desir
todays
##ormal
profanity
milky
##vestre
mauling
amus
evasion
assortment
poised
capcom
intif
intestinal
##sheim
centennial
strut
strickland
biggest
surreal
newsstand
newsasia
ones
onward
mays
parth
medarex
colby
confetti
demomobile
muscular
whim
whod
outrun
outkast
americanair
sodom
socha
##azo
insom
insatiable
schabir
swollen
callahan
economically
nearer
nearsightedness
guild
gupta
aspy
asahi
delinqu
delgado
deloitte
delirious
dealership
kneecap
smo
smic
nationality
##odulation
redman
redouble
hitless
lawrie
##ientes
courtyard
accordance
depaul
##ibble
provocation
payless
raiser
telemedia
telematic
testy
##uller
webcast
webtv
##ennes
developing
allison
trix
olympians
handsome
handwritten
upload
postbank
overland
overweight
overview
powerpc
cutthro
everest
cupcake
becker
emass
embe
elvis
elfri
fireball
firepass
suscept
shargin
##aterini
rightist
rightful
extortion
##ushy
##ushan
edison
datacent
##inda
##indy
bagger
concorde
conclusive
belka
immerse
consumers
freeport
itsa
communism
patina
insurmount
##retta
senden
keystroke
moribund
morientes
debunk
merry
mercer
mervyn
contractual
davanon
caffe
franck
footballs
footballing
easton
supportive
augment
africas
starwood
starhub
politicking
storey
toughness
toulouse
fundra
solvency
solanki
hardy
visibility
twirl
wallop
##plan
##pling
distrust
##uxhall
domest
domecq
capitals
capitalism
##atics
paerson
shortcut
brahe
watchful
##insider
##zegovina
landstuhl
underwear
simien
downside
estates
chairwoman
michaels
mcpeak
wali
walchhofer
slowing
mosquito
tories
torval
torretta
badge
ida
fastow
critique
ballroom
##ijk
chairmanship
glick
glaring
sideways
letdown
grav
gravely
straightfor
lessen
tycho
alma
petra
denominate
augustine
erstwhile
emerald
eurostar
throwback
greenville
greeneme
banquet
damn
damian
##flash
malisse
jana
vols
replica
guns
gunshot
gunfight
importation
##hanov
heartbreaking
verhof
salinas
skim
collusion
devout
silvestre
##evic
parks
notification
notifier
councilor
stakeholder
irvin
irwin
##atting
said
saarland
cynic
berroa
limelight
bookmark
osaka
osborn
grounder
utmost
copying
mortality
symc
revealing
pacif
christine
ramification
##annett
drizzle
middlebury
rolling
freighter
readily
checking
snecma
doulton
captaincy
wideout
biting
bangaband
hyster
rainforest
viewpoint
frontbridge
donkey
donnie
sami
singaporean
commercialize
cheque
burrow
burgl
circulatory
tightfisted
##ventional
santomero
rodman
##ricted
bonderman
complicity
##strate
mutilate
##thought
hominid
homemaker
biom
biop
rapist
statute
halladay
probability
flextronics
tonights
carolyn
benfica
benoit
benesova
couples
herzegovina
frankly
carlton
kenenisa
doubling
##sworth
celebratory
casio
casket
integrator
connected
industrialist
garrett
##mira
deride
crave
##netic
facelift
castilla
cabir
ideological
tenant
tenacious
microbe
microcell
ull
shockwave
guilt
vanqu
crewmember
kabila
tomorrows
unlucky
painfully
uncasville
##celabs
##porary
seventy
constable
undetect
trucking
trafficshield
toymaker
##ophren
fishery
animated
flashlight
cooler
sheen
sheppard
shaq
narco
mismanagement
misfortun
sixt
siena
siachen
scrum
scrushy
blogosphere
definite
groh
eduardo
##romodulation
briefcase
kindersley
ebb
forestall
kmrt
cowher
splurge
silverware
ousting
menop
neighboring
savior
ghaz
ghoul
lucchino
rigid
unfavor
deserted
fortress
antony
scorecard
cheaply
cornerstone
communists
respectable
lakefield
mattel
punk
physiology
birgit
nicklaus
brightness
fulmer
vauxhall
bitterness
architectural
cryst
dialing
dialup
sabah
brainshare
dogpile
cartilage
haid
mandela
selective
unwitting
abdel
latitude
unprepar
migraine
hollow
##smuller
tendinit
disruptive
collaborator
snowball
tigris
danielle
python
baer
jayhawks
mccann
binding
durazo
afterthought
tailspin
mitter
licensed
gadhafi
julien
rosa
bedside
bedouin
##pyware
gauntle
boro
overwhelmed
feliz
dwp
dissect
naga
pocketbook
wisher
barbie
batteast
punishable
tagmastore
rhat
substantive
bruising
belonging
kelley
namely
microphone
tabare
cambodians
authentic
authenticate
btx
lords
ugandan
priceless
rawalpindi
skinner
graceful
festus
mdr
bleustein
##ulsky
wheelchair
reassuring
reassurance
unrestricted
dietrich
unconventional
trademarked
diversion
emphatically
dotcom
otto
theatrical
counterfeiter
surfers
bestseller
biannual
katich
katmandu
harrisburg
dynamite
lorry
lorie
maktoum
knowledgeable
aaa
taleban
honeymoon
waters
echelon
##winner
ancest
multiply
orejuel
novelty
huntingdale
pigment
beavers
dalton
kitajima
hungarians
diagnostic
congratulatory
brutally
kumaratunga
pubs
albania
beamer
continuously
tanner
scripps
rudolph
superbike
hiatus
jawad
homestretch
definitively
molest
adaptive
kalu
foam
foaf
cadre
cadbury
wmd
transmitter
pearman
wobbly
lennar
ogre
ogles
forgiveness
carlyle
bjp
bjorkman
hyperactivity
buddhists
naive
terrifying
khalid
powers
powersh
##runner
homemaking
hossein
##ogenics
bethlehem
gonzales
niemin
heiress
megahertz
diabetic
chandrika
endlessly
whiplash
diminished
kahne
ferocity
sourcelabs
##fishe
inhale
contemporary
icelandair
indecent
multicast
roland
exemption
hooded
neuromodulation
kiwis
pizarro
brendon
aussies
hermanson
neutralize
fascinate
ejection
ucb
conjure
exaggerated
hoover
disturbance
synchronization
jubilation
mizuno
tulane
##ransky
##soever
gustavo
seminar
fragmented
nicaraguan
gentleman
kapler
rcn
purchaser
odor
adversely
restraining
vilify
alkhanov
mathematician
lundy
demilitarised
aborigine
distinctly
ciena
zabransky
orphanage
ekaterini
vincenzo
segway
supervision
foreseeable
mikael
uninspiring
enigma
inconclusive
intermediary
perplex
unconditionally
narcotics
divestiture
rejuvenate
marauder
precede
olympiad
burgos
burgsmuller
faso
##arcus
perilous
mcguinty
cbm
lubbers
womack
reckless
joaquim
cramped
housewife
##mobile
eerie
eerily
arunachal
sylvain
ismael
philanthropic
hidden
hulk
sahara
adolescence
trawler
obliv
tempest
bavarian
tidy
tactical
redistribute
mccoy
peacemaking
manifesto
atherogenics
eskimos
hectic
hoeppner
nonsense
inhibitor
extinguish
florentino
feasible
cheetham
gilmartin
mccartney
hoosiers
nostalgia
dudley
dizzying
eminem
jnj
kadhafi
prognosis
shaik
exuberant
whalen
depreciation
understatement
figuratively
burkina
pharmacist
extravagant
joubert
incapable
mothball
liberties
parishioner
schweppes
glitzy
filesharing
troubleshooting
cougars
mechassault
vrts
vineyard
unnerve
arcoxia
tekulsky
deconstruction
outcry
electrolux
salamander
irresponsible
saurav
psychiatrist
boilermaker
reintroduce
aetna
ebookers
gaulle
poutiainen
taurasi
vimpelcom
weymouth
wajed
unethical
enshrine
bujumbur
maestro
schizophren
octopus
antispyware
transporter
floresiensis
jettison
laroche
hypoth
nonchalantly
mahatma
shoesource
windsurfer
beshir
bulawayo
bemoan
cigna
dajuan
fountain
jaime
jarkko
kerala
mestalla
mambo
olerud
pneumonia
pectoral
zogby
##zynski
##installe
unannounced
sparsely
pritzker
intercollegiate
cornelius
blumenthal
hebei
covenant
laettner
primitive
networx
iscsi
whodunit
americanairlines
sodomy
sochaux
aspyr
cutthroat
elfriede
datacentre
insurmountable
torvalds
straightforward
greenemeier
verhofstadt
undetectable
misfortune
unfavorable
unprepared
tendinitis
gauntlet
orejuela
nieminen
bujumbura
schizophrenia
aman
aege
bce
bort
bain
bens
bpl
bik
boum
borde
cir
cumb
cna
cipher
cindy
dost
dearth
dante
ee
eg
eel
eme
ether
esch
eolas
erub
fing
foo
fanc
ferv
filling
fowl
gou
gus
gue
gina
gior
glim
goph
gannett
hed
hiz
haf
hager
hingham
hmy
haur
hasty
hibern
ist
ike
ifo
jeal
jolla
kom
kup
kai
klete
kras
lh
lse
lick
leland
mop
mous
mient
mullah
nb
nen
nay
nuj
nays
nsw
niece
nayan
nakar
ndp
ozz
pv
pse
pome
pinc
rl
rm
rd
rory
rath
ricket
ritz
sf
sly
sot
smp
siph
tk
tj
tutor
tasty
tpv
ugu
udc
ved
voc
vail
voul
vogue
vieri
wur
wab
wmp
waff
watt
wings
xing
yog
yitz
zing
zack
zia
zend
zib
zinc
zwick
##ocha
##nl
##nis
##nier
##sabri
##rc
##rue
##riona
##vim
##vara
##iated
##iuri
##cive
##pac
##paper
##pitation
##lb
##lot
##loo
##lore
##hin
##hak
##high
##hive
##hse
##hara
##yne
##fp
##fig
##fill
##klaw
##wc
##wig
##weat
##whe
##wires
##dz
##dar
##ues
##uho
##uatu
##gre
##gmy
##ziel
##zaffar
##bus
##bug
##bili
##qaa
##erity
##erior
##anes
##anate
##inarily
##enk
##atie
##atica
##atoon
##atsoever
##ayeta
##icer
##icante
##esia
##esma
##itant
##itating
##oustic
##oucester
##leus
##report
##rost
rey
rez
ream
reapp
reza
##enting
##entina
##omar
##omir
inou
ingers
inthe
inhal
##elist
##elago
##elane
##isie
stale
##ilson
##acency
##econ
##ashn
##olunt
##olastic
##amon
##amate
##urp
##uriate
##adot
##advantage
##eders
##edusa
##ceva
##rient
##rivation
neelie
##chy
##chief
choo
chag
chide
chiv
chiba
##akash
##rave
##unis
##unet
##eard
##uta
deg
deft
demp
deuce
conund
##opy
##opec
##andis
##andelli
thud
lees
##este
##estop
shal
shiver
shib
shula
shrap
shorth
sheryl
newport
newbury
exter
##ulum
compart
compusa
compassion
una
unice
unump
unfl
unden
unreal
unrec
unclaim
unending
spont
spoon
spotted
prat
prick
prank
pratt
prandelli
ples
plush
##allister
quirk
##aping
##apist
enam
enlight
##oco
##ocs
##ocera
##ocument
##ighton
monty
##emer
##embr
usable
##ppet
##ppost
alight
alina
alcan
alicante
alomar
##arted
seung
incub
##ectomy
foresh
##ellos
##agena
##endo
##abis
clancy
##ipelago
##antown
##antnam
secession
interruption
##ideo
perrig
goat
goeth
acrim
acoustic
marina
marlon
marvan
reparation
reperc
##ostar
sermon
arj
arnes
arna
arenas
winamp
finder
##ifel
indie
moist
moff
moose
moines
mohr
tresco
##ongo
brdc
manure
manama
manoe
adu
admon
adidas
##ogo
scroll
##ankham
##ileo
##ilee
pept
peoria
pekerman
bez
beane
##osevelt
##ptial
contrav
recal
recup
recurrence
frist
atapatt
appra
minisd
##rup
##assie
toby
blot
##ubon
disenf
disintegr
##keye
accor
accred
accredo
##ashan
cof
coch
coder
timo
timid
frayed
lasting
##icton
miche
lafr
annapolis
annonc
phara
##ghe
decri
decipher
decisively
##izational
timeout
oram
##aving
##ernal
commotion
##oupe
##ouple
attire
flog
flore
flair
flux
pref
preinstalle
wei
weber
crb
crouch
crpf
sata
syst
syed
syner
warburg
netbe
netweaver
carphone
carnell
roch
roosevelt
partizan
##xtor
##adeal
ender
##grance
##granate
consular
conspic
retros
boingo
##rosse
ameri
megan
##centric
openview
backtrack
##herent
##ooker
softwood
##ossess
seth
slipp
runup
seasoned
##vester
mazen
investcorp
amin
amok
ammar
ammon
amcor
amatil
intol
intake
intox
shareware
sharepoint
centr
importer
gencorp
genzyme
newsman
newswires
terribly
onetime
##sonian
infuse
infract
infusion
infanta
inferior
infuriate
parse
pariah
parchin
demo
musev
whitt
wholly
whooping
wheldon
whatsoever
getaway
outward
outplace
networked
##ithersburg
##phonic
helplessly
technologically
##iera
systemes
systematically
systemcorp
sothe
sofia
sohu
##azar
##aziland
abbre
##atorium
homepage
austrians
showj
startle
scho
sche
scheele
swel
swaziland
callaway
barth
barca
barrot
##inkus
signify
##ertify
remembr
palpitation
guantnam
##uca
asp
asari
aspir
asleep
forceful
seep
delf
dealers
knit
trape
trapping
smolder
##odzic
redraw
redisco
hitman
lawson
deprivation
##ibu
johns
provocative
payback
raich
raja
testament
##veloped
halilh
webmail
triano
olympus
handily
launching
goods
goodrich
upend
##hement
phoney
lowest
overpay
##orno
deton
##awei
armour
##afrost
continuation
cane
refill
refurb
emily
mobilt
##ranchise
elia
elias
firearm
shared
rightly
bombmaker
bombshell
edm
edelson
subpar
mueller
muzaffar
nasal
nasiriyah
freewhe
geron
standby
ito
itv
aviator
avondale
communal
midlands
goldstein
baghdads
lego
sourceforge
virulent
weston
commissions
billick
publicise
keypad
moreno
breakup
##iewicz
agencys
davy
arazi
issuer
englanders
francisc
metin
metall
mettle
matchplay
angulo
labonte
geot
gebr
geiger
geograph
geography
linus
basin
##erved
paste
portend
portsch
waller
wallpaper
distil
domino
rockville
realtors
equality
recept
invoice
involunt
discrep
titleholder
##scope
broadway
##ocratic
##ocracy
harlem
tarceva
humid
organizational
charred
touche
boozer
lovely
loosely
lohse
##ikowski
analyt
martinkus
##brit
autodes
##inska
lands
##hampton
underwrite
undervalue
digitalnet
downs
downbeat
estes
estrada
estadio
dared
darryl
mcmann
mcallister
valiant
valero
owings
##apeake
islamiah
mailer
superc
superintend
##onseca
##ijla
bowman
glg
gloss
gloucester
##ippet
gravey
filippo
earthling
rallying
grandstand
grandpar
tysabri
petros
petco
amongst
preval
tomato
stadio
erin
ergon
plethor
storaget
purist
iveta
banter
ltte
sharpie
blocking
veiga
vehement
malelane
chinadot
techxny
volt
entail
featured
##affi
gamestop
jerk
hearten
##burton
waterloo
magath
magnes
juninho
salazar
condone
standardization
spokane
silently
silhou
fragrance
##ricate
figgins
sonys
hospitalise
nyon
saab
youngs
madrids
bearer
spains
limo
cubicle
cali
calam
calayan
caledon
combo
osmond
##spot
flyi
liftoff
neverland
christie
montella
cpc
rollover
##aja
freire
freeman
brazilians
snippet
walkoff
kohl
toni
planting
winterthur
kara
karrie
##boree
larger
archipelago
frontrunner
qaqaa
shipbuilder
sammer
asians
thankful
auditing
audubon
industrie
birds
predictably
totalitarian
totalstor
citrix
bondi
##raphic
complacency
mutation
nonunion
reasoning
boyd
boykins
marche
marcher
huawei
bellow
benito
franks
yuko
crossroad
##swell
cablevision
siren
khok
dereg
crackle
sixers
criminalize
castor
castillo
shih
illusion
microbial
luzon
luigi
dominik
diseased
navision
vanity
vanessa
vanuatu
opportunistic
catriona
liberate
logistics
ruessel
undocument
appointee
suitcase
ferri
ferreira
##aulter
fairness
ceramic
patchy
patchwork
##schild
allyson
draper
dragan
flashback
sandhana
cosworth
spreadsheet
narrative
slugfest
misfire
smithsonian
harmon
mozamb
groom
groep
groklaw
individually
ankiel
kyocera
kindelan
nlc
##aurus
kufu
rivero
increased
trustworthy
##mondo
quits
authoring
keizer
##guide
luca
lucene
dunham
contestant
unfetter
unfathom
scotlands
discounting
lydell
##aughlin
chenji
tuner
wiseman
mattress
punjab
beehive
ashado
nicely
mclaughlin
linde
brainer
fredrik
dogg
chemicals
olmert
hammons
diamandis
megabyte
megadeal
selectively
pathmark
abdur
bradshaw
rafa
latif
fitr
dui
duqu
sighting
capsize
giles
##smith
shanxi
darken
constitutionality
amazed
dinesh
dinardo
galileo
sync
refined
fergusons
sarin
saras
gridlock
pygmy
xboxe
necked
horr
jayson
streamlined
memorize
dhs
dharm
##ecked
necessity
elliss
elliot
ecker
eccentric
roscoe
cyclical
sorely
bedding
bedrock
bedevil
dais
gaithersburg
infectious
confrontational
coordination
escalade
chaudh
psg
digitise
weakened
metals
luna
lunge
padre
paddy
##oltok
christianity
hondur
punchless
wizardry
lagging
jarrett
jarrod
jaromir
certance
imaginable
embarrassed
bamboo
lcds
kelvin
kelantan
kelvim
meteoric
kathy
kathleen
forgeard
theresa
uncharted
unchecked
etre
etrust
unprot
gregory
bosnians
mathis
ralston
silvia
mysteriously
thoughtful
outpouring
neighbouring
gazette
portalplayer
wheeling
inkjet
altercation
aviva
lamppost
moodie
ichat
anonymously
bashing
accomplice
accomplished
procedural
hawth
entrepreneurial
melting
thunderous
monopolize
middl
bustos
rioter
ansar
bpm
saltwater
schwarzer
kanellos
militiamen
abdullahi
lorena
##orpg
shyi
alumina
jurgen
kostov
unseal
auditorium
echostar
alexandre
alexandra
thrashers
robben
chamberlain
nervousness
dublon
foulke
sinopec
procur
romantic
inexpl
novelist
depressant
gazpromneft
divergent
##rovident
daley
oxycontin
compactflash
indycar
brookline
miker
kosuke
nutrient
##selassie
rehab
thoroughfare
haywood
cinem
duelguide
sediment
leaseholder
meaningless
emphasise
infiltrator
rudnick
jawbone
barnett
literacy
dishon
adaptable
pinkie
whitman
whitelist
meadowlands
zhuh
zholtok
kerber
aleks
bartoli
cordial
wannabe
scripting
hadlee
shrewd
terrify
keenly
nuptial
tempting
conscience
picturesque
tibco
soupmaker
pluto
mansfield
blessed
lampedusa
pierzynski
rabin
rabat
addicted
proudly
heavenly
dorchester
fisted
crosse
tainted
cannabis
feverishly
utilities
rancher
proliferate
mockery
wendell
morphine
caveat
rbot
shapiro
shahid
exxonmob
expeditionary
slacken
fredericton
druze
whereby
unaccount
perfume
irritating
saskatoon
tnt
karolinska
kroes
kieron
kieran
choreograph
jeopardise
dyke
friedman
subsequently
cocktail
hooper
rendell
tantrum
exaggeration
charlestown
stimulus
martyr
garageband
deductible
rehabilitate
aquatic
mizuho
zambia
mcmill
koren
omaha
sampling
clerk
perpetrator
agonize
agonizing
##gradable
caucus
cesar
cristiano
fiorentina
haggard
zepp
zeiss
fragmentation
zigbee
bracket
inflammation
knuckleball
telefonica
mimas
unrelenting
inheritance
grudziel
beitia
mathematics
fondly
neurone
accustom
regents
infertility
windsor
lacrosse
holographic
jingle
jingjing
tacoma
segreg
gymboree
tolerant
tutankham
yomiuri
anguished
macculloch
gagl
precedent
bulldoze
aesthetic
fitchburg
html
interrogator
permata
permafrost
marlboro
whirlwind
mccarthy
mcguire
incompatibility
jidkova
somerfield
vapor
weei
pittman
theorist
jagr
yawer
yawkey
carsley
ordinance
celer
caci
duckett
ginobili
ledee
wicked
shankar
adolescent
mmorpg
zalayeta
proximity
exhume
resentment
wiretap
counselling
nikolai
gullivers
rancor
tirade
zagunis
zaheer
ingenious
quarrel
rothschild
confectionery
barkley
filesystem
verbally
ignorance
eritreans
ballyhoo
danske
maven
nahayan
thyroid
monterrey
interlagos
cranberry
townsend
fluvirin
indebted
dmb
dmitry
gecis
gleefully
saxony
chronically
degenerate
spielman
enmity
perseid
gratitude
covington
sylvester
slideshow
redevelopment
dokubo
dresden
messagelabs
kangaroo
lupus
voracious
##stantiated
##icolor
peppers
preemptive
impeccable
singingfish
debilitating
cavernous
devotee
persecution
renegotiate
clyde
dessert
eurekster
hierarch
kaleid
qurie
sardinian
wavel
chesapeake
conducive
thirty
unregulated
spoiled
mancini
isotope
intuitive
swanky
emachines
humvees
mcginley
superlative
undeliverable
misguided
unsubstantiated
furlough
unpredictable
biodegradable
unreasonable
kovalainen
inconvenience
gimmick
miscalculation
unapologetic
cordero
hiccup
lualua
molten
palko
anadarko
finucane
trondheim
scavenge
intifada
delinquency
smoky
susceptible
caffeine
bangabandhu
crystl
mitterrand
deconstructionism
aegean
boumsong
bordeaux
ciphertrust
erubiel
guevara
glimmer
gophers
hauritz
nujoma
ozzie
pomegranate
pincus
siphon
ugueth
yitzhak
zenden
ingersoll
chivas
conundrum
shrapnel
compartment
unicef
unumprovident
unrecogn
unclaimed
enlighten
foreshadow
perrigo
acrimony
repercussion
arnesen
arnaud
trescothick
manoeu
admonish
contravene
atapattu
disenfranchise
ammonia
infraction
museveni
outplacement
sotheby
remembrance
guantnamo
trapeze
rediscover
halilhodzic
refurbish
freewheeling
gebrselassie
portschach
discrepancy
autodesk
superintendent
graveyard
grandparent
plethora
storagetek
chinadotcom
magnesium
caledonian
totalstorage
ruesselsheim
undocumented
mozambican
kufuor
unfettered
unfathomable
chenjiashan
unprotected
zhuhai
exxonmobil
grudzielanek
aic
ave
aft
aki
aiy
aura
bd
bia
bie
burs
barter
bint
boul
bisc
bbi
baut
biny
bca
bacht
binnie
bsf
cud
cics
crap
cinder
cuz
cios
ciat
cursor
dic
dul
dine
dss
dary
dina
drove
doy
dux
diane
dushan
difel
ere
eun
ery
erel
ered
eminent
fy
fd
fb
fom
fason
fated
fasser
fift
footer
fathers
gan
gour
gender
ginger
gently
hg
hac
hess
hive
hunch
hump
hors
hdd
hoist
iis
iac
iph
icer
jv
jw
jpl
kc
kah
kuc
koy
kung
katherine
lal
lom
lite
lern
laker
lcos
laila
mw
mite
mute
mform
mama
makh
mianne
nus
nud
naugh
nabi
noodle
npd
oo
omit
ozone
oomph
pee
pud
pult
papp
pizz
picas
pikes
rik
rita
rarity
sv
sb
sino
sado
sbs
sifford
tes
tish
tund
tote
teng
teth
tcs
tusk
tangled
uda
uci
vz
vas
vamp
vouch
vinnie
voller
vaulter
wo
wv
wes
wie
wider
wager
wipp
wwe
wba
wlad
witch
wcd
xand
xda
xpress
xinj
ya
ym
yel
yower
yuc
yarm
youk
yuta
zha
zuma
zijla
zaurus
##oir
##oby
##oiet
##nas
##nia
##nour
##nham
##tas
##tank
##sum
##rm
##rity
##ele
##eous
##eper
##vist
##vox
##vili
##vado
##iad
##iola
##cz
##cit
##cies
##crom
##cafe
##crack
##czak
##pret
##prol
##lake
##lij
##llier
##hh
##hat
##hum
##hoff
##hoe
##hesis
##hrone
##helm
##yser
##yck
##yres
##fels
##fighter
##faro
##mm
##may
##mec
##make
##mline
##mates
##kingly
##kiewicz
##wg
##wre
##wed
##wijk
##dpa
##dorf
##uesday
##ughan
##gb
##gal
##gill
##grow
##zoo
##zano
##bas
##bench
##bayev
##qvist
##jee
##jour
##jean
##eres
##anian
##anzi
##inan
##inetti
##arus
##arcer
##aried
##arati
##arana
##aralle
##ariably
##orably
##orrh
##enix
##enously
##alter
##stage
##staff
##atial
##atown
##icus
##icile
##iculous
##iculum
##esive
##esize
##ittle
##itious
##oux
##oufl
##oudam
##leigh
reay
reese
reelect
##omac
##days
inel
##elic
##elid
##elani
##isers
##isano
stoning
stuttle
stoudam
##ilsk
##ilenko
##etown
##acs
##acly
##access
##ecker
##ecca
##asug
##igy
##igator
##olade
##olith
##olulu
##amoto
##urous
##idis
##terian
##terdam
##terrio
##iriya
##tham
##thole
##theless
##riedly
nemo
##chard
##choten
chis
chun
chee
chio
chark
chees
chau
changer
chiev
chattan
cheryl
##uso
##uskas
##unky
##utation
##utie
##utnik
dein
dekal
cone
conan
conine
##osi
##osc
##osk
##osome
##oshi
##ositary
thur
lem
leone
leont
lezak
##essential
shir
shab
shaker
shino
##istair
##ctuation
##ortue
##eef
##eeled
##ulse
compass
unm
uncl
unple
unseason
unsung
unquest
spong
spher
sprem
sputnik
pras
ano
anac
anick
##umar
##ummer
##umatic
plump
plural
quag
##apuri
enco
##ocular
monde
##emba
usurp
##ooga
worsley
alst
alice
alana
alistair
##arton
suk
##arevich
seaw
seaf
incarcer
##ellman
##aggio
##endale
##endously
clap
cluel
##mere
##antime
expens
permira
gob
mariel
marily
maroon
mariet
marconi
maroth
marquez
##udice
repo
repel
repatriate
repressive
argh
aruba
arcade
wink
wince
##sexual
finns
finanzi
##iferation
##ifiable
indah
indiff
indisc
indiffer
##ordia
##ordinate
moh
moy
moot
mohan
moors
tray
agp
aging
agust
agrib
bresc
manug
manaus
presby
preserv
adr
adorn
##ishley
##ogical
##ogene
grun
grub
grup
grumble
scull
scooter
scuba
scamper
pebble
##ivar
##ivable
##ivisie
tub
began
beige
##itex
corret
wednesdays
##ounded
recess
appal
appalling
##achuk
minibus
toff
toomer
blat
blingo
busan
disco
disreg
disaffected
##olls
heik
hebrew
reports
accolade
coe
##duel
##roph
timmy
##onez
frx
sunglass
playful
##icana
annih
phony
markedly
decoration
##inta
daytime
##loth
##loade
##lode
##lovic
orr
orono
##avy
##avine
##erneath
##ernalia
flan
fling
flum
flie
flesch
flutie
preloade
wean
wein
weill
weiner
cringe
sato
satire
liech
##velle
netline
netapp
carrot
carmaking
carmax
defl
roone
roaster
parting
##anca
endpoint
endgame
consec
##rosoft
##roslav
ameren
isab
isvs
mei
meas
meier
meander
meantime
backlog
##herty
profess
setter
##ultz
##ulture
slant
slider
mai
maul
maher
mauna
maxtor
maughan
nightly
nightmar
amar
amber
amex
amenity
assorted
pokey
pothole
europa
##show
norilsk
implode
##worker
strang
terrence
##upathi
technicolor
ongc
onterrio
infospace
infinib
countrywoman
parity
medial
medford
noelle
stockton
confide
musu
wheeled
##ublic
engrave
outbound
outreach
outraged
outduel
##ahari
##phalt
##coal
soi
sofa
insign
insulation
inspiring
austerity
schalk
schini
swish
sween
swisher
growl
baros
barrow
barham
barric
barrac
barrack
##inklij
signup
palpable
asu
asago
asml
ascribe
asphalt
##athed
traject
traverse
traumatic
smu
headed
headless
##esex
courtside
depositary
##undel
##unders
sanity
sanaa
revised
broom
handout
upmarket
quickbook
houllier
##heisel
washburn
overton
overcast
overfishe
powerpoint
incremental
efficacy
everquest
evergreen
##mini
detri
dethrone
##awan
##awesi
canwest
reformer
electorate
protege
protagonist
reboot
rebirth
rebecca
##pring
footed
elmer
elgin
antara
antczak
fireman
firecrack
putsch
additive
gregan
sharper
righty
extoll
windmill
edelin
datuk
datamon
bagram
subd
subpl
submach
subordinate
belittle
beatification
imitate
freeware
lineage
speier
##deed
midwestern
specimen
terrorize
opposed
westpac
westlb
billie
pitino
moratorium
foregone
deborah
breakout
breakneck
nucleus
merid
merged
remained
holcomb
telltale
meticulous
matching
empress
motown
motto
easter
futile
afridi
starpower
politely
angst
geo
geosp
engineers
pakt
despicable
despatie
##eshire
##ugli
linn
baseless
solich
solitary
hardee
twenty
twellman
##dyess
carey
distiller
##uxan
rockwell
equation
invigorate
invariably
cardi
disciple
lifeboat
hari
harrop
jeju
tarp
tarmac
litany
persona
personify
paolo
battlefront
dropout
ilm
ilga
humax
bravado
##ikka
##iktas
apathy
apwg
##factory
obey
yards
curriculum
##new
landowner
landfill
##hammer
underfund
simons
thinktank
##ukov
downlink
estee
informant
##tsin
chairperson
darn
mcf
mcdon
mcgree
mcarthur
mcdyess
##ittingly
walton
northernmost
cellul
outset
outsell
moshe
armys
kidwa
sumner
superf
motorway
embody
pitched
seminary
astacio
##ijan
##oleum
gliz
glendale
glavine
prepaid
likeness
lethar
graze
judgement
urchin
louvre
lessig
grands
almaty
petabyte
##wept
childress
danvers
augusta
erwin
emerging
emergen
storability
thrower
turban
lto
fuller
damarcus
classification
classmates
responder
cashless
##ribution
personalize
veolia
mali
camoufl
prisons
connolly
panicky
##ternally
storming
enticing
projectile
pota
potomac
copa
disple
gambit
weapons
pollard
shopkeeper
extender
##iskie
veronica
##cko
andal
macrov
macaque
magellan
salon
salty
salaried
##oxing
##oxide
civilisation
##eville
delaying
shuttles
##umba
frazier
parkway
hospice
noted
figuer
jetstar
##baum
credence
caption
captivate
sauce
sauer
saarc
saunter
saunders
photos
bering
machete
squat
squyres
##medahl
calico
groundswell
##spire
picker
flyweight
flyhal
nevertheless
##imbo
nflx
rammell
foundry
drip
brazell
cpsc
rolls
##aji
automated
jackets
readership
checkout
branded
brandish
woodland
snip
snail
douri
tonique
parlor
parlay
biter
spangled
kari
karim
larson
##forum
films
rainout
rainstorm
##ceede
avoidance
frontman
donna
kickstart
shipbuilding
shipwre
commercialization
dvds
dvdr
##keyser
tropicana
friends
##ieth
burd
dreary
##eteria
##iscus
##iscos
citadel
rebounding
eyeglass
racec
##erving
counterattack
nonleague
nonprol
pirlo
piraha
##askich
##hiro
biib
biathlon
zealander
huang
zealanders
screenwriter
occurrence
##biography
premierleague
fixate
dellucci
henley
##fermline
encroach
suez
crossfire
skyward
paneling
soaring
casually
required
periodically
garland
gargant
songda
talbot
excursion
inventive
autobiography
commoner
murderous
deryck
telen
nokias
facet
okocha
castel
castell
castrone
slipstream
##interpret
shiites
microelectronics
subsidise
ulcer
shocker
lackey
turkeys
dataquest
dodgy
ravenous
ronan
ronin
swedes
renewed
flags
happening
fluctuation
catar
catacly
budgetary
pte
rukeyser
constraint
servicing
irishmen
flaherty
adopter
underneath
hatton
adopted
##ophical
fairplay
cerutt
munster
patching
defenceman
entirety
huntington
randle
coolum
cosatu
argentines
wearable
misdeed
misinterpret
beachfront
plotter
husseins
definity
groan
besiktas
prabh
wilf
wilho
wilhelm
affected
ethan
forestry
malaysias
sensible
wicketkeeper
reporters
falmouth
rummage
mistreatment
hurriedly
butcher
reverend
honk
honesty
honcho
honolulu
##escreen
cyberattack
fatty
sterility
sleeper
waltz
tsur
savings
keene
luciano
luczak
doorway
dunfermline
contested
saturns
binocular
hillsborough
trigenix
scoreline
azy
respectability
hasselt
mattick
pretender
stretcher
punctuate
guidugli
birk
recognizable
mauritz
brightstor
##regor
understandably
ashburton
bitterswe
nicola
nepalis
creativity
linden
saber
unsatis
byte
faa
sticking
##pired
hubcap
cartagena
ignomin
olson
olsen
enjoyable
forums
inquire
vaccinate
mahesh
curbishley
latortue
duyser
objectweb
gilmore
immens
contactless
collaboratively
##rained
warmly
sloan
##cientist
diamondback
furst
synag
synstar
restricted
restrictive
printout
bucknell
pyr
adjuster
bharati
bhupathi
baa
dustan
audiovox
duration
klose
bonn
oxide
ecologist
juliana
formalize
cyclone
soreness
soriano
bedminster
daoud
borcon
cautionary
steamroll
characterise
characterization
##dropping
padilla
rotterdam
kazan
fossilise
fossilized
gardenhire
lenard
rackable
reputed
bracewell
customary
customization
akers
tuneup
persistently
masako
roaring
tabuse
theron
unparalle
stampeders
ultral
borrower
symbolise
symbolism
jenks
puppet
gracefully
mdm
offshoot
midsummer
pavement
psyche
spectacularly
##meni
islamists
auditory
towering
reassign
reassert
assured
dietary
essay
coffeehouse
outfitter
shakur
uncont
folding
otis
preferential
matthias
diop
joyous
ayers
hendrik
##franco
lahaina
ordinate
ordonez
reserves
reservoir
surfboard
tremendously
kuril
##tenstein
emirate
converse
sheraton
resurrection
folklore
##ausible
honeypot
mossberg
watts
##promising
implicit
gatumba
petersen
uml
breweries
gonaive
rommedahl
depressing
barghuti
screenshot
fractured
piggy
riaz
breasted
somers
salvadoran
guessing
overlay
cybersqu
miroslav
toxicology
hsdpa
adventurous
walters
memoir
haynes
quantrill
brutality
relaxation
continuity
hobart
tanasug
configur
obscene
mcgregor
knights
brilliantly
##kinen
splashy
jawan
relentlessly
gurunet
frenetic
immunization
motivated
kalashn
rejoice
whittle
eyes
superiority
quebecois
rosenfels
alfredo
salesforce
lennon
bucket
buckeye
ambanis
glowing
esas
##mitte
hernia
circumvent
vickers
cherbourg
burundian
rahim
rahman
mannered
ontuesday
hurlbert
adept
prematurely
homemake
vicinity
clogged
bethel
wolverhampton
golota
exhausting
exhaustive
byrne
dora
diabete
shamble
sewer
confidentiality
vpns
brasov
flowery
nitrogen
rituxan
wyo
wyeth
##writing
toehold
globus
beautifully
fertile
indecisive
horrifying
mackay
monumental
edgardo
taunting
gastric
gables
koninklij
fraternity
neuheisel
throe
kirui
kirilenko
nouve
interpol
tamarine
irritation
irritated
bacterial
juggle
eradication
karolina
aberration
abercrom
ionics
inept
dislike
pregnancy
defensively
mystify
encrypt
mathematical
tillman
vcrs
swoopes
philosophical
cedar
hinrich
lidar
lidle
##nikov
handicapped
panathinaiko
wartorn
seamer
gramatica
martyrs
aquarium
jubilee
sully
sulfur
sulawesi
uncompromising
falsely
azzurri
gustaf
gizmondo
jesper
jesdan
mesic
mesmer
enclosure
seminole
beneficial
unproven
velodrome
lawlessness
dearly
##informed
##thropoiet
adversity
akhmad
gidd
cheeky
peacemaker
lipped
evidently
penguins
glamorous
morehead
neuron
deerfield
pronger
windswept
gamecocks
orchestra
bureaucratic
hrbat
prominently
falconio
dweller
gianfranco
pamper
hennes
jiulin
pulsating
searing
tutu
tutsis
vsnl
yunis
uninsured
uninspired
distressed
harbin
estonia
marauding
tubercul
miraculously
faslane
stardom
marlborough
inductee
reckoning
isaiah
semitism
treadmill
theoretically
nazareth
nazarbayev
immortalize
cafeteria
kauai
pimco
concoction
anatolia
arrogance
evangelical
steakhouse
mujahid
mujuru
erroneous
maltreat
misunderstand
anthropology
frosty
bickering
cacoph
iosn
sahib
##volent
prowl
vertebrae
unscathed
flanker
slinging
emilie
counsell
nikolay
categorize
astonishment
griffiths
peacemake
xxxvi
dougherty
kinko
oyj
rostov
sickening
ingenuity
##iagmeni
recapital
apprehend
skittle
eritrean
dolby
gdt
ithaca
nacion
porcher
poole
nexen
contaminant
contaminated
traumatize
actuator
turbojet
caldas
hodgkin
higgins
habib
housec
jardine
oshiom
ragged
reincarnation
uspaskich
opsware
phishe
tarnished
emeryville
calderon
fairytale
puzzling
tajikistan
irreparable
unsettled
uncharacteristically
ddos
dummy
iqbal
nolan
nawab
wasteland
##turis
unplanned
appendectomy
videocon
twentieth
volek
agonisingly
heterogene
kremer
kudrin
lingus
pompey
tivoli
##somely
unbelievable
anabolic
preschooler
minmetals
disobey
carriage
paraphernalia
remodeling
dovish
maldives
dismantling
splendid
barclaycard
mummify
decommissioning
grosjean
ginseng
jigsaw
pecul
uwb
wrapper
ingres
chernoby
demeanor
shujaat
exquisite
comptroller
resuscitate
desirable
amusing
parthiv
telematics
embezz
osborne
vanquish
menopause
nagaoka
ancestral
powershot
benschoten
fingert
fervor
giorgio
hizbollah
hafner
jealous
mientkiewicz
nbsp
naysayer
vouliagmeni
wurld
zingarevich
##weather
inoue
dempsey
prankster
plesetsk
peptide
bezos
recuperate
cofounder
michele
lafrentz
decriminal
netbeans
whittingham
showjumper
sweltering
mobiltel
muzaffarabad
geronimo
receptor
involuntary
analytical
daredevil
ergonomic
voltage
silhouette
calamity
duquette
horrendous
dharmapuri
chaudhry
hawthorn
middlesex
mikerevic
kerberos
zeppelin
tutankhamun
celeron
manoeuvre
aiyar
biele
bautista
binyamin
bachtiar
cuzco
ciatrick
dsseldorf
duxbury
dushanbe
difelice
eredivisie
fassero
icerocket
kucera
mforma
pulte
picasa
tethys
wippit
wladimir
wcdma
xandros
xinjiang
ymca
yeltsin
yoweri
youkilis
zhaoxing
zijlaard
##orrhage
inelig
stoudamire
chiofaro
chievo
chattanooga
leontien
shinobu
unclutter
unpleasant
unquestion
quagmire
clueless
expensing
finanziaria
indifference
indifferent
moorsel
agribusiness
brescia
manugistics
presbyterian
preservation
grupo
corretja
disregard
liechtenstein
nightmarish
strangely
infiniband
schinias
sweeney
barricade
barracuda
asagoe
trajectory
quickbooks
firecracker
datamonitor
subplot
submachine
geospatial
ilgauskas
mcgreevey
emergencies
macrovision
figueroa
flyhalf
shipwreck
nonproliferation
gargantuan
castroneves
cataclysm
cerutti
wilhoit
bittersweet
ignominious
unparalleled
tanasugarn
kalashnikov
koninklijke
abercrombie
jesdanun
##thropoietin
hrbaty
tuberculosis
oshiomhole
heterogeneous
chernobyl
aix
aether
ains
auri
averse
bf
bly
bice
bide
bda
biov
bilingual
cis
cess
cct
css
cout
cib
cumber
cba
cuis
ciscos
dvelop
dax
dane
dipp
drib
dino
dyer
dione
ef
ez
eq
eon
eus
eber
eile
elo
eater
eyad
eternal
fart
fiss
fans
fenn
fsu
fuk
fatt
fizer
gc
gos
gry
gany
gash
gland
gird
gael
gcc
giac
hb
hj
hare
hick
hose
hers
hanc
hwa
habo
hippo
ict
iain
iber
iker
iata
irob
iriver
jh
jk
jot
jame
jans
jib
jara
jabil
jilt
jolly
javed
kol
kart
kany
koss
kph
kief
keat
kles
kark
kapp
kren
kali
kaka
lus
lra
loo
lue
latch
lute
liang
macle
mta
mmo
mika
nd
nil
nir
nigh
nos
nant
nond
npt
nxt
nij
nforce
naut
nowa
nws
nuts
niag
obe
oster
omission
ogc
pb
pst
pid
pian
pag
pend
pach
pug
piano
pns
pbh
qing
qyn
rar
ras
rile
rink
rison
ruck
risc
ruffle
rotten
rabb
rpm
rpg
rennes
sine
sith
sda
sorrow
sulf
sledge
sizz
[...]
